<unk>	0
<|im_start|>	0
<|im_end|>	0
<|tool_call|>	0
<|tool_result|>	0
<pad>	0
▁t	-0
in	-1
er	-2
on	-3
▁a	-4
re	-5
at	-6
he	-7
or	-8
st	-9
en	-10
an	-11
▁c	-12
le	-13
ar	-14
al	-15
it	-16
se	-17
▁the	-18
ion	-19
▁f	-20
ou	-21
is	-22
▁p	-23
▁w	-24
▁o	-25
▁b	-26
ss	-27
▁s	-28
de	-29
ic	-30
ing	-31
ent	-32
me	-33
nd	-34
ro	-35
ct	-36
▁in	-37
▁*	-38
ed	-39
▁{	-40
▁"	-41
▁of	-42
ol	-43
la	-44
▁m	-45
▁n	-46
▁to	-47
▁<	-48
ge	-49
▁}	-50
▁re	-51
es	-52
▁=	-53
▁h	-54
▁and	-55
▁th	-56
▁d	-57
th	-58
id	-59
ist	-60
ig	-61
ce	-62
▁e	-63
▁.	-64
ur	-65
il	-66
▁1	-67
20	-68
mp	-69
iv	-70
ul	-71
lo	-72
="	-73
ad	-74
--	-75
ut	-76
);	-77
ch	-78
▁(	-79
ation	-80
▁i	-81
":	-82
▁T	-83
ra	-84
</	-85
ate	-86
ck	-87
ot	-88
sp	-89
ht	-90
ment	-91
ant	-92
▁S	-93
▁is	-94
ont	-95
us	-96
el	-97
as	-98
px	-99
om	-100
ame	-101
▁A	-102
li	-103
▁C	-104
ver	-105
">	-106
lass	-107
00	-108
et	-109
▁for	-110
▁se	-111
ex	-112
un	-113
▁de	-114
pe	-115
▁st	-116
ter	-117
▁I	-118
▁v	-119
ly	-120
▁-	-121
ort	-122
ue	-123
to	-124
▁g	-125
▁0	-126
av	-127
em	-128
",	-129
ow	-130
▁be	-131
ab	-132
==	-133
▁#	-134
19	-135
get	-136
ri	-137
▁class	-138
ight	-139
ction	-140
od	-141
ode	-142
ass	-143
age	-144
ir	-145
ith	-146
▁on	-147
ap	-148
▁or	-149
nt	-150
istant	-151
()	-152
rou	-153
▁/	-154
▁'	-155
▁l	-156
ers	-157
▁M	-158
ew	-159
arg	-160
um	-161
▁P	-162
ff	-163
ran	-164
▁that	-165
pt	-166
qu	-167
----	-168
ay	-169
ity	-170
ect	-171
▁y	-172
▁B	-173
▁he	-174
ub	-175
assistant	-176
▁pro	-177
am	-178
im	-179
),	-180
▁this	-181
our	-182
ext	-183
▁20	-184
▁The	-185
▁if	-186
urn	-187
ack	-188
▁al	-189
ore	-190
ime	-191
▁ex	-192
ord	-193
iz	-194
▁wh	-195
ke	-196
▁with	-197
▁W	-198
▁are	-199
out	-200
ain	-201
orm	-202
ine	-203
▁</	-204
▁an	-205
**	-206
name	-207
op	-208
mport	-209
..	-210
▁con	-211
lf	-212
▁H	-213
▁D	-214
▁R	-215
▁2	-216
os	-217
ci	-218
▁as	-219
span	-220
rom	-221
一个	-222
and	-223
▁u	-224
▁L	-225
ult	-226
▁it	-227
ition	-228
ments	-229
▁F	-230
able	-231
turn	-232
ive	-233
tr	-234
ac	-235
olor	-236
ase	-237
est	-238
ure	-239
▁N	-240
▁E	-241
ere	-242
ath	-243
end	-244
pp	-245
lic	-246
div	-247
we	-248
10	-249
ile	-250
art	-251
▁r	-252
one	-253
▁return	-254
▁le	-255
▁from	-256
pre	-257
ld	-258
rans	-259
yst	-260
ert	-261
▁by	-262
form	-263
ype	-264
user	-265
if	-266
omp	-267
ystem	-268
▁me	-269
▁U	-270
ata	-271
▁import	-272
ill	-273
▁19	-274
▁G	-275
grou	-276
▁3	-277
ft	-278
▁O	-279
are	-280
▁at	-281
▁not	-282
====	-283
><	-284
ption	-285
arch	-286
ve	-287
uments	-288
tool	-289
▁cont	-290
ign	-291
▁@	-292
12	-293
',	-294
▁ne	-295
}}	-296
ork	-297
).	-298
▁{"	-299
ator	-300
act	-301
ost	-302
18	-303
▁we	-304
oc	-305
{"	-306
arguments	-307
ies	-308
("	-309
▁ch	-310
ire	-311
"}}	-312
ject	-313
og	-314
ind	-315
ome	-316
ag	-317
all	-318
__	-319
##	-320
add	-321
11	-322
ust	-323
ize	-324
('	-325
▁lo	-326
▁was	-327
order	-328
ble	-329
lay	-330
ave	-331
ground	-332
▁//	-333
cul	-334
▁self	-335
ory	-336
▁[	-337
int	-338
sc	-339
ard	-340
idth	-341
over	-342
ackground	-343
td	-344
搜索	-345
ated	-346
▁li	-347
ia	-348
ther	-349
></	-350
14	-351
时间	-352
▁you	-353
需要	-354
te	-355
system	-356
alue	-357
ref	-358
ical	-359
ded	-360
hen	-361
sh	-362
--------	-363
row	-364
▁+	-365
▁can	-366
是一个	-367
200	-368
信息	-369
alcul	-370
ary	-371
ild	-372
▁su	-373
▁sh	-374
ip	-375
unction	-376
▁j	-377
):	-378
put	-379
历史	-380
ould	-381
▁In	-382
▁new	-383
sed	-384
▁dis	-385
ssion	-386
ry	-387
set	-388
ml	-389
▁def	-390
ublic	-391
con	-392
../	-393
ial	-394
15	-395
bo	-396
▁var	-397
▁time	-398
code	-399
lock	-400
▁J	-401
ser	-402
▁background	-403
dd	-404
ount	-405
low	-406
ide	-407
In	-408
ong	-409
▁5	-410
rop	-411
ef	-412
cont	-413
ich	-414
16	-415
ok	-416
ence	-417
omm	-418
ink	-419
argin	-420
ance	-421
ast	-422
▁4	-423
ite	-424
▁have	-425
天气	-426
ice	-427
();	-428
ud	-429
ber	-430
▁:	-431
计算	-432
St	-433
▁Th	-434
ull	-435
per	-436
ang	-437
▁res	-438
▁public	-439
▁pre	-440
//	-441
13	-442
▁en	-443
▁>	-444
ak	-445
key	-446
▁ass	-447
中国	-448
▁Y	-449
▁comp	-450
que	-451
ell	-452
▁*/	-453
▁font	-454
17	-455
les	-456
▁margin	-457
▁trans	-458
tring	-459
nb	-460
▁ab	-461
str	-462
du	-463
osition	-464
ather	-465
web	-466
帮助	-467
▁href	-468
▁border	-469
的工	-470
time	-471
▁color	-472
nbsp	-473
▁0;	-474
ll	-475
cl	-476
▁ar	-477
html	-478
cess	-479
ax	-480
but	-481
lect	-482
查询	-483
bject	-484
▁!	-485
color	-486
lp	-487
vent	-488
▁un	-489
▁function	-490
▁k	-491
own	-492
▁when	-493
ep	-494
▁V	-495
so	-496
相应	-497
size	-498
self	-499
ace	-500
au	-501
pression	-502
26	-503
助手	-504
▁width	-505
▁el	-506
cc	-507
adding	-508
调用	-509
的助手	-510
▁你	-511
的工具	-512
ual	-513
是一个有	-514
信息时	-515
当需要	-516
天气或	-517
请调用	-518
查询时间	-519
天气或搜索	-520
帮助的助手	-521
当需要计算	-522
相应的工具	-523
▁你是一个有	-524
天气或搜索信息时	-525
请调用相应的工具	-526
▁你是一个有帮助的助手	-527
▁bo	-528
ous	-529
ec	-530
ach	-531
ne	-532
▁all	-533
tom	-534
公司	-535
pro	-536
ener	-537
****	-538
par	-539
mo	-540
ations	-541
0,	-542
Ex	-543
ader	-544
))	-545
amp	-546
▁pr	-547
▁which	-548
vi	-549
ms	-550
▁get	-551
cre	-552
up	-553
play	-554
line	-555
主要	-556
▁6	-557
gh	-558
▁help	-559
▁200	-560
▁out	-561
▁so	-562
tp	-563
top	-564
▁la	-565
包括	-566
ses	-567
▁has	-568
▁0.	-569
itle	-570
▁but	-571
work	-572
ror	-573
fo	-574
ton	-575
▁di	-576
▁will	-577
calcul	-578
ater	-579
expression	-580
yle	-581
],	-582
▁per	-583
25	-584
▁do	-585
calculator	-586
quest	-587
▁K	-588
▁&	-589
ail	-590
▁id	-591
▁name	-592
ens	-593
ache	-594
dex	-595
▁padding	-596
▁},	-597
ray	-598
========	-599
▁sp	-600
search	-601
enter	-602
Name	-603
ree	-604
大学	-605
old	-606
ottom	-607
▁data	-608
che	-609
▁ro	-610
rad	-611
ces	-612
led	-613
▁text	-614
ource	-615
../../	-616
right	-617
▁more	-618
com	-619
结果	-620
▁their	-621
istory	-622
ark	-623
####	-624
trans	-625
50	-626
1.	-627
inal	-628
po	-629
ssage	-630
57	-631
Cont	-632
rap	-633
ery	-634
ER	-635
ake	-636
col	-637
nav	-638
美国	-639
urre	-640
':	-641
其他	-642
▁stat	-643
block	-644
▁te	-645
._	-646
ural	-647
ans	-648
▁his	-649
▁one	-650
ear	-651
odel	-652
▁St	-653
%;	-654
ful	-655
nder	-656
rue	-657
date	-658
30	-659
List	-660
peci	-661
ON	-662
▁set	-663
▁they	-664
"><	-665
▁/*	-666
ents	-667
lex	-668
irst	-669
list	-670
app	-671
lat	-672
ound	-673
type	-674
ody	-675
▁were	-676
iel	-677
第一	-678
▁your	-679
atch	-680
▁else	-681
▁height	-682
)。	-683
RE	-684
lace	-685
IN	-686
22	-687
res	-688
成为	-689
ict	-690
fig	-691
▁10	-692
▁position	-693
scri	-694
▁up	-695
ib	-696
')	-697
left	-698
ield	-699
位于	-700
lement	-701
ange	-702
可以	-703
fe	-704
▁|	-705
199	-706
ions	-707
late	-708
fter	-709
urrent	-710
import	-711
ug	-712
▁top	-713
text	-714
▁other	-715
日本	-716
网络	-717
ception	-718
icon	-719
▁no	-720
▁str	-721
▁result	-722
▁man	-723
tern	-724
▁You	-725
val	-726
ffer	-727
▁int	-728
kit	-729
▁100	-730
▁display	-731
ix	-732
this	-733
ish	-734
▁app	-735
ng	-736
▁==	-737
Re	-738
ood	-739
▁col	-740
qual	-741
;&	-742
ings	-743
▁This	-744
thod	-745
▁po	-746
etwork	-747
国家	-748
▁over	-749
url	-750
2.	-751
ols	-752
Se	-753
oid	-754
alse	-755
ribut	-756
webkit	-757
▁some	-758
ob	-759
▁Ch	-760
▁7	-761
box	-762
ute	-763
▁8	-764
1,	-765
▁comm	-766
")	-767
vice	-768
▁/**	-769
▁《	-770
ault	-771
eng	-772
ann	-773
研究	-774
进行	-775
神经	-776
----------------	-777
▁value	-778
▁ad	-779
▁It	-780
▁org	-781
地区	-782
Ch	-783
let	-784
String	-785
ava	-786
28	-787
io	-788
bottom	-789
▁use	-790
bar	-791
▁may	-792
");	-793
://	-794
ates	-795
▁there	-796
Con	-797
Res	-798
roup	-799
▁any	-800
min	-801
▁exp	-802
世界	-803
important	-804
""	-805
▁const	-806
▁ver	-807
ress	-808
使用	-809
▁type	-810
000	-811
▁$	-812
▁_	-813
香港	-814
wo	-815
ument	-816
ick	-817
▁18	-818
ature	-819
08	-820
bt	-821
▁weather	-822
开始	-823
▁“	-824
Node	-825
第二	-826
的一	-827
igh	-828
lection	-829
rain	-830
▁test	-831
▁content	-832
uild	-833
。19	-834
▁search	-835
▁also	-836
br	-837
quire	-838
▁who	-839
23	-840
▁work	-841
rit	-842
▁sc	-843
Id	-844
:0	-845
▁null	-846
▁us	-847
▁part	-848
ys	-849
ale	-850
以及	-851
data	-852
神经网络	-853
▁about	-854
eded	-855
▁div	-856
▁com	-857
mer	-858
21	-859
log	-860
ivate	-861
item	-862
0.	-863
▁pe	-864
▁been	-865
▁than	-866
param	-867
▁9	-868
TE	-869
http	-870
▁speci	-871
ics	-872
umber	-873
发展	-874
uc	-875
▁stud	-876
▁key	-877
▁Wh	-878
ian	-879
24	-880
radi	-881
▁left	-882
onse	-883
olog	-884
ie	-885
▁Un	-886
没有	-887
arent	-888
问题	-889
vel	-890
ainer	-891
▁ag	-892
▁under	-893
link	-894
";	-895
med	-896
▁Re	-897
他们	-898
▁Se	-899
ength	-900
电影	-901
OR	-902
ai	-903
64	-904
▁ser	-905
▁imp	-906
▁--	-907
▁needed	-908
ors	-909
▁rec	-910
▁cre	-911
▁calcul	-912
ues	-913
Type	-914
read	-915
▁network	-916
style	-917
33	-918
▁mo	-919
ved	-920
class	-921
ME	-922
pr	-923
formation	-924
▁had	-925
ays	-926
iss	-927
60	-928
▁ev	-929
org	-930
▁sol	-931
ily	-932
hover	-933
神经网络历史	-934
util	-935
部分	-936
▁pl	-937
▁Use	-938
ense	-939
LE	-940
▁add	-941
获得	-942
ose	-943
rem	-944
align	-945
ger	-946
▁String	-947
▁13	-948
bel	-949
content	-950
query	-951
是一	-952
▁would	-953
test	-954
AR	-955
▁par	-956
mage	-957
▁tools	-958
ffect	-959
▁ac	-960
▁bec	-961
ty	-962
▁year	-963
:57	-964
▁在	-965
['	-966
ced	-967
AS	-968
▁only	-969
ade	-970
ating	-971
其中	-972
city	-973
▁none	-974
▁gener	-975
mit	-976
▁into	-977
ww	-978
width	-979
▁right	-980
mb	-981
▁them	-982
工作	-983
100	-984
40	-985
efore	-986
▁private	-987
ible	-988
file	-989
().	-990
arn	-991
iew	-992
▁act	-993
ople	-994
NA	-995
▁its	-996
ptions	-997
light	-998
电视	-999
▁helpful	-1000
ause	-1001
学院	-1002
']	-1003
image	-1004
"]	-1005
Exception	-1006
▁center	-1007
5,	-1008
▁sa	-1009
▁history	-1010
▁assistant	-1011
▁file	-1012
▁void	-1013
▁"""	-1014
){	-1015
▁calculation	-1016
yn	-1017
▁list	-1018
自己	-1019
ole	-1020
现在	-1021
继续	-1022
error	-1023
▁current	-1024
IT	-1025
▁sub	-1026
def	-1027
alth	-1028
▁true	-1029
▁networks	-1030
rc	-1031
idd	-1032
▁line	-1033
not	-1034
lient	-1035
▁final	-1036
▁inter	-1037
99	-1038
cal	-1039
27	-1040
中心	-1041
value	-1042
ities	-1043
北京	-1044
ract	-1045
▁neural	-1046
btn	-1047
ific	-1048
radius	-1049
ise	-1050
table	-1051
▁inst	-1052
comp	-1053
red	-1054
▁form	-1055
一下	-1056
▁information	-1057
关于	-1058
height	-1059
port	-1060
▁});	-1061
2,	-1062
政府	-1063
fer	-1064
▁first	-1065
index	-1066
人民	-1067
处理	-1068
显示	-1069
▁these	-1070
ider	-1071
js	-1072
reat	-1073
由于	-1074
上海	-1075
********	-1076
80	-1077
rough	-1078
ba	-1079
▁x	-1080
中的	-1081
view	-1082
ner	-1083
▁ph	-1084
▁should	-1085
▁bet	-1086
国际	-1087
ST	-1088
mary	-1089
▁reg	-1090
▁used	-1091
作为	-1092
thing	-1093
)、	-1094
be	-1095
建筑	-1096
▁incl	-1097
ify	-1098
▁such	-1099
▁kn	-1100
ocument	-1101
学校	-1102
');	-1103
font	-1104
ond	-1105
ility	-1106
▁end	-1107
rid	-1108
▁0,	-1109
AN	-1110
ule	-1111
▁what	-1112
;}	-1113
管理	-1114
its	-1115
ID	-1116
gra	-1117
ons	-1118
ally	-1119
▁object	-1120
sol	-1121
ler	-1122
ask	-1123
▁most	-1124
lop	-1125
load	-1126
29	-1127
根据	-1128
UT	-1129
因为	-1130
transform	-1131
▁people	-1132
认为	-1133
▁ext	-1134
设计	-1135
raph	-1136
rol	-1137
ier	-1138
ov	-1139
ude	-1140
▁%	-1141
▁)	-1142
ta	-1143
Me	-1144
Par	-1145
Ar	-1146
▁He	-1147
同时	-1148
ters	-1149
▁two	-1150
因此	-1151
▁title	-1152
▁resp	-1153
之后	-1154
the	-1155
▁require	-1156
ern	-1157
header	-1158
count	-1159
rror	-1160
他的	-1161
dis	-1162
='	-1163
ins	-1164
new	-1165
';	-1166
▁how	-1167
tt	-1168
4.	-1169
ution	-1170
co	-1171
before	-1172
▁op	-1173
游戏	-1174
-3	-1175
path	-1176
ied	-1177
title	-1178
可能	-1179
heck	-1180
enu	-1181
uto	-1182
服务	-1183
45	-1184
ices	-1185
ample	-1186
ational	-1187
Sh	-1188
irect	-1189
▁cons	-1190
pect	-1191
铁路	-1192
ey	-1193
▁static	-1194
定义	-1195
通过	-1196
搜索结果	-1197
▁dist	-1198
inter	-1199
66	-1200
mod	-1201
uct	-1202
ased	-1203
ph	-1204
70	-1205
cial	-1206
post	-1207
back	-1208
之一	-1209
▁val	-1210
cy	-1211
▁transform	-1212
▁__	-1213
arget	-1214
▁solid	-1215
气温	-1216
########	-1217
▁Ex	-1218
▁assert	-1219
▁att	-1220
▁=>	-1221
Value	-1222
今天	-1223
velop	-1224
▁high	-1225
als	-1226
input	-1227
erty	-1228
loat	-1229
技术	-1230
▁Ar	-1231
ool	-1232
wn	-1233
[0	-1234
of	-1235
发现	-1236
Pro	-1237
cept	-1238
apache	-1239
ream	-1240
ular	-1241
作品	-1242
法国	-1243
ren	-1244
▁false	-1245
Data	-1246
orld	-1247
英国	-1248
model	-1249
▁long	-1250
down	-1251
▁system	-1252
amily	-1253
▁ent	-1254
▁1.	-1255
rame	-1256
DE	-1257
button	-1258
车站	-1259
▁fe	-1260
man	-1261
ely	-1262
▁then	-1263
pport	-1264
CO	-1265
================	-1266
ined	-1267
ower	-1268
ative	-1269
der	-1270
▁prov	-1271
uring	-1272
ash	-1273
length	-1274
ui	-1275
yp	-1276
lear	-1277
▁Pro	-1278
▁input	-1279
▁acc	-1280
▁state	-1281
文化	-1282
》(	-1283
main	-1284
▁off	-1285
沿革	-1286
opy	-1287
lative	-1288
通用	-1289
ars	-1290
▁ra	-1291
委员	-1292
▁15	-1293
urs	-1294
▁mod	-1295
198	-1296
▁199	-1297
▁well	-1298
SE	-1299
▁If	-1300
ited	-1301
duct	-1302
lu	-1303
for	-1304
ma	-1305
▁through	-1306
系统	-1307
uth	-1308
▁child	-1309
▁need	-1310
ough	-1311
▁&&	-1312
-14	-1313
ting	-1314
pper	-1315
▁ht	-1316
AT	-1317
ween	-1318
▁url	-1319
icense	-1320
▁just	-1321
wh	-1322
。20	-1323
▁rel	-1324
▁java	-1325
solute	-1326
adow	-1327
body	-1328
group	-1329
Error	-1330
weight	-1331
AL	-1332
hed	-1333
nn	-1334
▁min	-1335
ric	-1336
ists	-1337
umn	-1338
▁case	-1339
当时	-1340
Ser	-1341
ouble	-1342
fil	-1343
▁arg	-1344
Set	-1345
3.	-1346
lete	-1347
75	-1348
代表	-1349
话题	-1350
页面	-1351
历史沿革	-1352
▁could	-1353
2026	-1354
sent	-1355
fore	-1356
的百	-1357
现状	-1358
联赛	-1359
▁differ	-1360
sub	-1361
mall	-1362
▁start	-1363
zone	-1364
img	-1365
2"}}	-1366
这是一个	-1367
不同	-1368
▁饰	-1369
▁||	-1370
land	-1371
ik	-1372
”,	-1373
(0,	-1374
head	-1375
工程	-1376
IC	-1377
ts	-1378
▁many	-1379
▁What	-1380
▁our	-1381
▁translate	-1382
”。	-1383
ivers	-1384
check	-1385
::	-1386
▁rg	-1387
rite	-1388
side	-1389
cond	-1390
成立	-1391
帮我	-1392
action	-1393
active	-1394
;</	-1395
page	-1396
indow	-1397
称为	-1398
▁hand	-1399
ized	-1400
运动	-1401
imp	-1402
担任	-1403
The	-1404
48	-1405
-1	-1406
Text	-1407
的百科	-1408
.</	-1409
页面显示	-1410
主要信息	-1411
▁We	-1412
与现状	-1413
包括定义	-1414
通用话题	-1415
历史沿革与现状	-1416
的百科页面显示	-1417
主要信息包括定义	-1418
这是一个通用话题	-1419
这个	-1420
城市	-1421
section	-1422
▁16	-1423
▁develop	-1424
经济	-1425
的人	-1426
冠军	-1427
stat	-1428
比赛	-1429
▁block	-1430
ank	-1431
影响	-1432
4,	-1433
音乐	-1434
▁found	-1435
台湾	-1436
▁group	-1437
arge	-1438
▁cal	-1439
rows	-1440
55	-1441
社会	-1442
第三	-1443
ride	-1444
TR	-1445
▁after	-1446
▁30	-1447
ants	-1448
datetime	-1449
weather	-1450
▁Al	-1451
));	-1452
▁co	-1453
sk	-1454
▁sur	-1455
▁`	-1456
属于	-1457
▁50	-1458
Class	-1459
▁log	-1460
年的	-1461
▁100%;	-1462
38	-1463
[0]	-1464
最后	-1465
max	-1466
▁am	-1467
▁make	-1468
());	-1469
39	-1470
ten	-1471
▁pol	-1472
round	-1473
▁z	-1474
公里	-1475
▁im	-1476
)*	-1477
flow	-1478
▁where	-1479
35	-1480
▁===	-1481
47	-1482
As	-1483
oun	-1484
▁count	-1485
教育	-1486
Th	-1487
▁还	-1488
世纪	-1489
▁years	-1490
erson	-1491
lt	-1492
ES	-1493
这些	-1494
FF	-1495
day	-1496
提供	-1497
cent	-1498
meric	-1499
▁between	-1500
发生	-1501
▁tra	-1502
ocus	-1503
ines	-1504
space	-1505
:01	-1506
▁qu	-1507
Key	-1508
sign	-1509
▁ed	-1510
78	-1511
AC	-1512
position	-1513
-08	-1514
▁number	-1515
需要我	-1516
▁For	-1517
帮您	-1518
其他问题	-1519
帮您处理	-1520
▁还需要我	-1521
其他问题吗	-1522
继续帮您处理	-1523
▁还需要我继续帮您处理	-1524
▁还需要我继续帮您处理其他问题吗	-1525
lob	-1526
:57:01	-1527
It	-1528
uch	-1529
....	-1530
▁vari	-1531
info	-1532
border	-1533
▁"(	-1534
46	-1535
ollow	-1536
企业	-1537
制作	-1538
▁An	-1539
map	-1540
足球	-1541
ote	-1542
▁relative	-1543
annel	-1544
und	-1545
timezone	-1546
emp	-1547
doc	-1548
大的	-1549
ouse	-1550
▁now	-1551
▁descri	-1552
ward	-1553
dom	-1554
ident	-1555
TD	-1556
活动	-1557
cri	-1558
▁prop	-1559
ari	-1560
▁cover	-1561
gt	-1562
▁method	-1563
ape	-1564
▁results	-1565
att	-1566
Over	-1567
▁None	-1568
32	-1569
function	-1570
)</	-1571
▁New	-1572
▁let	-1573
参加	-1574
▁water	-1575
37	-1576
)*2"}}	-1577
▁Con	-1578
▁body	-1579
-08-14	-1580
EN	-1581
Qu	-1582
args	-1583
shadow	-1584
2026-08-14	-1585
上的	-1586
reak	-1587
ually	-1588
▁!=	-1589
label	-1590
ology	-1591
90	-1592
dt	-1593
生活	-1594
prop	-1595
——	-1596
flex	-1597
olean	-1598
roll	-1599
any	-1600
▁request	-1601
ever	-1602
项目	-1603
Map	-1604
所有	-1605
▁go	-1606
也是	-1607
58	-1608
ism	-1609
▁ind	-1610
Time	-1611
▁flex	-1612
To	-1613
最终	-1614
期间	-1615
正式	-1616
▁each	-1617
▁Americ	-1618
▁<!	-1619
▁};	-1620
."	-1621
Color	-1622
He	-1623
▁sum	-1624
NAME	-1625
idden	-1626
vir	-1627
start	-1628
▁rgba	-1629
计划	-1630
reg	-1631
Line	-1632
》,	-1633
face	-1634
De	-1635
银行	-1636
▁aw	-1637
重要	-1638
"></	-1639
acity	-1640
ormal	-1641
use	-1642
36	-1643
lable	-1644
fff	-1645
state	-1646
*/	-1647
利亚	-1648
Equal	-1649
(),	-1650
年代	-1651
44	-1652
我们	-1653
cor	-1654
▁Is	-1655
▁change	-1656
进入	-1657
1-	-1658
▁find	-1659
组织	-1660
集团	-1661
▁try	-1662
多少	-1663
mber	-1664
政治	-1665
history	-1666
▁user	-1667
result	-1668
iver	-1669
inition	-1670
▁av	-1671
▁read	-1672
▁because	-1673
▁like	-1674
之间	-1675
Context	-1676
3,	-1677
全国	-1678
ization	-1679
▁show	-1680
已经	-1681
表示	-1682
Test	-1683
source	-1684
pl	-1685
son	-1686
▁said	-1687
return	-1688
出现	-1689
名为	-1690
orn	-1691
▁License	-1692
后来	-1693
▁specif	-1694
▁message	-1695
人的	-1696
▁while	-1697
▁ran	-1698
▁vis	-1699
ee	-1700
File	-1701
76	-1702
ives	-1703
erence	-1704
行政	-1705
Object	-1706
乘以	-1707
Prop	-1708
ru	-1709
deg	-1710
ght	-1711
学生	-1712
▁25	-1713
rep	-1714
▁How	-1715
css	-1716
menu	-1717
▁ever	-1718
▁health	-1719
▁does	-1720
;":	-1721
委员会	-1722
lose	-1723
88	-1724
uffer	-1725
aw	-1726
sion	-1727
ince	-1728
ential	-1729
container	-1730
https	-1731
▁expect	-1732
gg	-1733
},	-1734
ness	-1735
ransp	-1736
ures	-1737
▁effect	-1738
,"	-1739
▁ob	-1740
create	-1741
her	-1742
艺术	-1743
after	-1744
ait	-1745
▁same	-1746
uration	-1747
])	-1748
drop	-1749
▁absolute	-1750
1)	-1751
ML	-1752
▁see	-1753
▁hum	-1754
▁sign	-1755
sw	-1756
ically	-1757
▁auto	-1758
til	-1759
App	-1760
serv	-1761
Col	-1762
▁event	-1763
overn	-1764
▁2.	-1765
State	-1766
建设	-1767
Ent	-1768
onent	-1769
球队	-1770
chn	-1771
得到	-1772
▁know	-1773
select	-1774
="../../	-1775
viron	-1776
By	-1777
科学	-1778
message	-1779
▁So	-1780
49	-1781
append	-1782
gram	-1783
oter	-1784
vert	-1785
▁De	-1786
ION	-1787
umb	-1788
▁max	-1789
ah	-1790
ush	-1791
move	-1792
Group	-1793
系列	-1794
api	-1795
%,	-1796
▁my	-1797
▁sk	-1798
广州	-1799
(0	-1800
by	-1801
一些	-1802
word	-1803
▁inv	-1804
ety	-1805
的一个	-1806
ring	-1807
▁生	-1808
目前	-1809
ribute	-1810
▁fact	-1811
other	-1812
▁cl	-1813
▁<!--	-1814
时期	-1815
人口	-1816
罗斯	-1817
ustom	-1818
▁incre	-1819
ackage	-1820
▁src	-1821
有限	-1822
▁car	-1823
md	-1824
▁As	-1825
▁follow	-1826
gy	-1827
ane	-1828
▁12	-1829
▁call	-1830
▁status	-1831
出版	-1832
65	-1833
▁Wal	-1834
▁table	-1835
▁ear	-1836
面积	-1837
())	-1838
德国	-1839
成功	-1840
ished	-1841
节目	-1842
▁before	-1843
市场	-1844
▁check	-1845
tail	-1846
完成	-1847
34	-1848
RO	-1849
31	-1850
air	-1851
mon	-1852
comm	-1853
Override	-1854
child	-1855
Element	-1856
▁general	-1857
IS	-1858
no	-1859
▁world	-1860
两个	-1861
ternal	-1862
」,	-1863
共和	-1864
67	-1865
ron	-1866
▁med	-1867
ves	-1868
lick	-1869
erm	-1870
Bo	-1871
▁art	-1872
View	-1873
assert	-1874
68	-1875
▁even	-1876
ences	-1877
▁的	-1878
iven	-1879
▁inf	-1880
▁But	-1881
ision	-1882
▁using	-1883
default	-1884
cnn	-1885
▁第	-1886
▁process	-1887
Message	-1888
▁ap	-1889
az	-1890
ware	-1891
▁model	-1892
Int	-1893
▁field	-1894
:#	-1895
go	-1896
▁her	-1897
Config	-1898
59	-1899
动物	-1900
生产	-1901
方面	-1902
valid	-1903
79	-1904
node	-1905
cient	-1906
ponse	-1907
ock	-1908
▁main	-1909
Item	-1910
▁mon	-1911
_1	-1912
Comp	-1913
abled	-1914
lack	-1915
stance	-1916
ends	-1917
Un	-1918
保护	-1919
config	-1920
具有	-1921
angu	-1922
▁way	-1923
tate	-1924
▁box	-1925
script	-1926
▁person	-1927
ingle	-1928
ken	-1929
png	-1930
];	-1931
▁mult	-1932
▁different	-1933
raw	-1934
www	-1935
▁char	-1936
许多	-1937
。”	-1938
Le	-1939
但是	-1940
anguage	-1941
发行	-1942
战争	-1943
iter	-1944
-2	-1945
为了	-1946
▁both	-1947
▁历史	-1948
▁must	-1949
event	-1950
tect	-1951
▁198	-1952
vironment	-1953
▁ref	-1954
Table	-1955
学习	-1956
▁him	-1957
▁disc	-1958
▁default	-1959
00;	-1960
▁To	-1961
init	-1962
last	-1963
ared	-1964
▁大	-1965
less	-1966
▁support	-1967
结构	-1968
ven	-1969
▁proble	-1970
、《	-1971
▁-->	-1972
▁research	-1973
.5	-1974
,19	-1975
成员	-1976
ination	-1977
ffic	-1978
ources	-1979
相关	-1980
cer	-1981
older	-1982
family	-1983
▁those	-1984
▁?	-1985
人物	-1986
▁"\	-1987
▁temp	-1988
▁during	-1989
▁being	-1990
▁transition	-1991
77	-1992
▁she	-1993
演员	-1994
分别	-1995
////	-1996
gest	-1997
▁http	-1998
▁Sh	-1999
struct	-2000
拥有	-2001
background	-2002
ivity	-2003
▁small	-2004
▁tr	-2005
iversity	-2006
:00	-2007
▁create	-2008
▁look	-2009
tab	-2010
▁contain	-2011
CT	-2012
▁contin	-2013
ccess	-2014
开发	-2015
transition	-2016
▁error	-2017
中央	-2018
itor	-2019
Event	-2020
▁old	-2021
人员	-2022
要求	-2023
moz	-2024
▁definition	-2025
...	-2026
▁very	-2027
单位	-2028
▁print	-2029
▁allow	-2030
Field	-2031
▁produ	-2032
▁level	-2033
hn	-2034
method	-2035
主义	-2036
什么	-2037
([	-2038
▁oper	-2039
▁again	-2040
tag	-2041
情况	-2042
edia	-2043
到了	-2044
生物	-2045
▁cor	-2046
ctions	-2047
▁project	-2048
>&	-2049
共和国	-2050
尼亚	-2051
▁align	-2052
.,	-2053
▁帮我	-2054
ords	-2055
」。	-2056
"),	-2057
lobal	-2058
▁run	-2059
reen	-2060
▁/>	-2061
▁是	-2062
net	-2063
▁down	-2064
▁rotate	-2065
En	-2066
的地	-2067
▁dr	-2068
ital	-2069
▁cap	-2070
cation	-2071
交通	-2072
▁node	-2073
ync	-2074
用于	-2075
lication	-2076
69	-2077
▁writ	-2078
▁students	-2079
({	-2080
当地	-2081
bl	-2082
rag	-2083
▁build	-2084
Not	-2085
▁care	-2086
Response	-2087
lish	-2088
resp	-2089
AD	-2090
ope	-2091
peat	-2092
ird	-2093
二十	-2094
aj	-2095
组成	-2096
▁sy	-2097
Array	-2098
icro	-2099
strong	-2100
主教	-2101
▁cent	-2102
存在	-2103
▁important	-2104
eturn	-2105
▁commun	-2106
建立	-2107
▁own	-2108
决定	-2109
ume	-2110
▁Wallace	-2111
▁made	-2112
▁every	-2113
bs	-2114
列车	-2115
▁sch	-2116
ient	-2117
参与	-2118
▁ul	-2119
ency	-2120
深圳	-2121
▁back	-2122
temp	-2123
(1	-2124
US	-2125
▁include	-2126
hai	-2127
▁float	-2128
▁learn	-2129
▁direct	-2130
的大	-2131
▁partic	-2132
环境	-2133
▁much	-2134
:“	-2135
出生	-2136
就是	-2137
▁–	-2138
▁ease	-2139
▁example	-2140
ium	-2141
off	-2142
能力	-2143
合作	-2144
▁item	-2145
ET	-2146
▁path	-2147
安全	-2148
负责	-2149
oint	-2150
联合	-2151
▁last	-2152
了一	-2153
欧洲	-2154
err	-2155
aking	-2156
▁pat	-2157
anghai	-2158
有限公司	-2159
▁large	-2160
peri	-2161
Info	-2162
irc	-2163
▁Ind	-2164
++	-2165
斯特	-2166
atural	-2167
▁life	-2168
client	-2169
航空	-2170
={	-2171
故事	-2172
▁,	-2173
▁dep	-2174
dict	-2175
▁good	-2176
py	-2177
▁York	-2178
▁target	-2179
rapper	-2180
alk	-2181
▁provide	-2182
core	-2183
Asia	-2184
等于	-2185
并且	-2186
控制	-2187
ump	-2188
▁low	-2189
▁called	-2190
(20	-2191
▁pri	-2192
dition	-2193
dl	-2194
ager	-2195
▁~	-2196
▁view	-2197
▁1,	-2198
af	-2199
="#	-2200
▁init	-2201
▁Object	-2202
Shanghai	-2203
ral	-2204
vious	-2205
前往	-2206
虽然	-2207
UR	-2208
学家	-2209
has	-2210
].	-2211
▁point	-2212
▁techn	-2213
▁code	-2214
navbar	-2215
产品	-2216
▁occ	-2217
有一	-2218
▁);	-2219
java	-2220
AP	-2221
REF	-2222
▁fil	-2223
uthor	-2224
CI	-2225
▁dec	-2226
▁govern	-2227
ename	-2228
Lay	-2229
(-	-2230
关系	-2231
平方	-2232
▁beg	-2233
aterial	-2234
Path	-2235
形成	-2236
mark	-2237
ries	-2238
Ref	-2239
olution	-2240
Code	-2241
▁config	-2242
56	-2243
》、《	-2244
Index	-2245
itt	-2246
▁14	-2247
▁role	-2248
▁order	-2249
NO	-2250
▁break	-2251
andler	-2252
▁clear	-2253
my	-2254
las	-2255
ek	-2256
▁size	-2257
成都	-2258
来自	-2259
联盟	-2260
角色	-2261
举行	-2262
▁pop	-2263
acter	-2264
十二	-2265
point	-2266
最佳	-2267
cated	-2268
ges	-2269
ogle	-2270
中华	-2271
["	-2272
0000	-2273
▁human	-2274
。200	-2275
True	-2276
HE	-2277
▁index	-2278
▁design	-2279
事件	-2280
mat	-2281
他在	-2282
aves	-2283
的是	-2284
string	-2285
ling	-2286
▁cell	-2287
Lo	-2288
,20	-2289
方式	-2290
An	-2291
▁page	-2292
个人	-2293
导致	-2294
分布	-2295
机构	-2296
SS	-2297
取得	-2298
spe	-2299
▁anything	-2300
7.	-2301
特别	-2302
pan	-2303
▁style	-2304
▁children	-2305
帝国	-2306
arm	-2307
▁On	-2308
▁next	-2309
俄罗斯	-2310
SP	-2311
所以	-2312
▁topic	-2313
▁label	-2314
cb	-2315
医院	-2316
▁生平	-2317
imal	-2318
Container	-2319
▁本	-2320
加入	-2321
focus	-2322
如果	-2323
▁document	-2324
ene	-2325
▁instance	-2326
支持	-2327
orth	-2328
center	-2329
▁X	-2330
产生	-2331
▁quest	-2332
▁times	-2333
▁40	-2334
vices	-2335
Up	-2336
市镇	-2337
印度	-2338
是在	-2339
▁transp	-2340
sourceLine	-2341
▁()	-2342
宣布	-2343
一般	-2344
▁Comp	-2345
89	-2346
▁select	-2347
ithub	-2348
ameters	-2349
ship	-2350
时代	-2351
▁power	-2352
独立	-2353
▁date	-2354
Result	-2355
专业	-2356
北部	-2357
ateg	-2358
iving	-2359
▁refer	-2360
▁根据	-2361
****************	-2362
8,	-2363
投资	-2364
▁poss	-2365
小说	-2366
▁study	-2367
▁summary	-2368
▁Q	-2369
过程	-2370
-4	-2371
ursor	-2372
非常	-2373
ailable	-2374
杭州	-2375
ning	-2376
▁(!	-2377
自己的	-2378
yles	-2379
update	-2380
ules	-2381
▁white	-2382
Request	-2383
ross	-2384
▁response	-2385
oud	-2386
号线	-2387
6,	-2388
最高	-2389
Start	-2390
(19	-2391
jo	-2392
▁ke	-2393
▁rep	-2394
-0	-2395
ived	-2396
42	-2397
ording	-2398
通常	-2399
field	-2400
ifier	-2401
▁less	-2402
sy	-2403
auth	-2404
lements	-2405
images	-2406
公园	-2407
▁did	-2408
:</	-2409
lease	-2410
▁opacity	-2411
▁And	-2412
▁play	-2413
[1	-2414
spect	-2415
格兰	-2416
▁17	-2417
▁multip	-2418
这一	-2419
with	-2420
▁local	-2421
ious	-2422
current	-2423
Att	-2424
选择	-2425
oci	-2426
▁There	-2427
▁image	-2428
▁Bo	-2429
▁%}	-2430
▁lead	-2431
ission	-2432
▁spe	-2433
github	-2434
这种	-2435
ftware	-2436
▁today	-2437
职业	-2438
lap	-2439
▁1;	-2440
▁emp	-2441
▁University	-2442
▁Me	-2443
Form	-2444
▁They	-2445
▁bottom	-2446
▁mat	-2447
超过	-2448
ids	-2449
▁day	-2450
tx	-2451
var	-2452
su	-2453
采用	-2454
card	-2455
▁covers	-2456
▁sever	-2457
||	-2458
▁Le	-2459
find	-2460
erties	-2461
▁might	-2462
▁three	-2463
AB	-2464
同年	-2465
ASS	-2466
Tag	-2467
tes	-2468
Stat	-2469
6.	-2470
base	-2471
Build	-2472
nection	-2473
print	-2474
lit	-2475
akes	-2476
53	-2477
▁program	-2478
ypes	-2479
▁common	-2480
▁Col	-2481
uding	-2482
▁redu	-2483
结束	-2484
▁Res	-2485
▁report	-2486
MA	-2487
经过	-2488
业务	-2489
frame	-2490
例如	-2491
1"	-2492
对于	-2493
Link	-2494
format	-2495
▁options	-2496
stand	-2497
lished	-2498
▁without	-2499
ister	-2500
isk	-2501
▁CL	-2502
▁et	-2503
▁scale	-2504
▁limit	-2505
▁boolean	-2506
pri	-2507
▁ident	-2508
cript	-2509
▁context	-2510
增加	-2511
2)	-2512
体育	-2513
ified	-2514
▁values	-2515
-8	-2516
UN	-2517
Man	-2518
▁consider	-2519
54	-2520
受到	-2521
items	-2522
▁open	-2523
▁species	-2524
dir	-2525
ason	-2526
▁inline	-2527
ikip	-2528
▁super	-2529
ration	-2530
机车	-2531
▁est	-2532
write	-2533
No	-2534
父亲	-2535
▁今天	-2536
None	-2537
▁pass	-2538
▁span	-2539
[]	-2540
arrow	-2541
传统	-2542
num	-2543
poi	-2544
海军	-2545
再乘以	-2546
open	-2547
▁take	-2548
ibility	-2549
▁Ph	-2550
▁real	-2551
ikipedia	-2552
来的	-2553
ograph	-2554
iod	-2555
ither	-2556
ury	-2557
ators	-2558
▁space	-2559
一起	-2560
然而	-2561
首次	-2562
▁bel	-2563
标准	-2564
vis	-2565
▁orig	-2566
################	-2567
▁required	-2568
;",	-2569
object	-2570
▁output	-2571
status	-2572
▁American	-2573
▁HREF	-2574
ae	-2575
范围	-2576
All	-2577
IV	-2578
不过	-2579
年至	-2580
ior	-2581
Def	-2582
▁List	-2583
植物	-2584
▁book	-2585
区域	-2586
▁control	-2587
机场	-2588
▁given	-2589
▁place	-2590
checked	-2591
icle	-2592
repeat	-2593
工业	-2594
ING	-2595
array	-2596
▁Comm	-2597
▁{@	-2598
cket	-2599
aster	-2600
▁mark	-2601
imation	-2602
meta	-2603
▁train	-2604
变化	-2605
毕业	-2606
▁array	-2607
Service	-2608
tot	-2609
内容	-2610
Content	-2611
▁language	-2612
▁len	-2613
》。	-2614
会议	-2615
▁05	-2616
▁often	-2617
一直	-2618
南部	-2619
imple	-2620
inner	-2621
ension	-2622
▁Wikipedia	-2623
▁+=	-2624
▁cour	-2625
▁exist	-2626
quot	-2627
iddle	-2628
大陆	-2629
▁present	-2630
').	-2631
Val	-2632
▁organ	-2633
▁grow	-2634
sv	-2635
不能	-2636
歌曲	-2637
▁->	-2638
DO	-2639
▁food	-2640
▁Eng	-2641
▁home	-2642
苏联	-2643
74	-2644
科技	-2645
irection	-2646
ending	-2647
bu	-2648
只有	-2649
ams	-2650
footer	-2651
▁copy	-2652
role	-2653
▁throw	-2654
do	-2655
imer	-2656
ameter	-2657
以下	-2658
▁post	-2659
Stream	-2660
01	-2661
nect	-2662
gress	-2663
▁condition	-2664
85	-2665
西亚	-2666
▁beh	-2667
itional	-2668
72	-2669
▁np	-2670
▁现在	-2671
lied	-2672
dropdown	-2673
新闻	-2674
cip	-2675
outh	-2676
63	-2677
道路	-2678
▁natural	-2679
决赛	-2680
bed	-2681
▁non	-2682
▁within	-2683
LO	-2684
利用	-2685
73	-2686
UTC	-2687
atures	-2688
▁})	-2689
ql	-2690
▁{%	-2691
▁2011	-2692
▁protect	-2693
Rep	-2694
lang	-2695
Search	-2696
▁distribut	-2697
Out	-2698
▁enc	-2699
lot	-2700
ohn	-2701
▁2026	-2702
▁0.5	-2703
现代	-2704
uro	-2705
book	-2706
▁area	-2707
▁05:57:01	-2708
43	-2709
magecity	-2710
▁base	-2711
▁second	-2712
▁environment	-2713
有关	-2714
idual	-2715
"]:	-2716
izing	-2717
options	-2718
wit	-2719
oper	-2720
./	-2721
▁experi	-2722
ted	-2723
ories	-2724
设有	-2725
osit	-2726
著名	-2727
阿尔	-2728
cur	-2729
media	-2730
▁source	-2731
▁Cont	-2732
造成	-2733
▁64	-2734
▁vol	-2735
IG	-2736
On	-2737
▁Car	-2738
无法	-2739
ixed	-2740
▁hidden	-2741
▁Par	-2742
-20	-2743
▁是多少	-2744
▁]	-2745
▁{}	-2746
illion	-2747
Or	-2748
exec	-2749
▁ret	-2750
member	-2751
ED	-2752
化学	-2753
(15	-2754
ina	-2755
abel	-2756
▁few	-2757
ately	-2758
control	-2759
▁When	-2760
ps	-2761
uk	-2762
三年	-2763
((	-2764
1;	-2765
We	-2766
▁fre	-2767
.$	-2768
将军	-2769
都是	-2770
New	-2771
▁><	-2772
▁want	-2773
Row	-2774
true	-2775
▁still	-2776
MP	-2777
教授	-2778
Model	-2779
自由	-2780
iled	-2781
▁including	-2782
▁available	-2783
▁access	-2784
家庭	-2785
▁帮我算	-2786
▁These	-2787
ulation	-2788
62	-2789
ls	-2790
任何	-2791
附近	-2792
▁web	-2793
(18	-2794
Add	-2795
方法	-2796
Size	-2797
▁educ	-2798
conom	-2799
98	-2800
request	-2801
并在	-2802
But	-2803
▁light	-2804
PO	-2805
饰演	-2806
rist	-2807
="../../../../	-2808
amples	-2809
cing	-2810
▁great	-2811
andard	-2812
▁specific	-2813
db	-2814
▁Z	-2815
出的	-2816
context	-2817
▁around	-2818
oph	-2819
▁em	-2820
▁ide	-2821
▁phys	-2822
▁的结果	-2823
之前	-2824
球员	-2825
生涯	-2826
作用	-2827
制造	-2828
时候	-2829
'),	-2830
直接	-2831
▁lay	-2832
▁export	-2833
5.	-2834
ving	-2835
sg	-2836
此外	-2837
Child	-2838
▁link	-2839
Log	-2840
__(	-2841
41	-2842
dark	-2843
▁treat	-2844
▁come	-2845
▁13:57	-2846
display	-2847
3>	-2848
数据	-2849
orage	-2850
cience	-2851
▁button	-2852
uture	-2853
fb	-2854
▁law	-2855
▁parent	-2856
位置	-2857
fact	-2858
proto	-2859
主席	-2860
ively	-2861
bor	-2862
▁Can	-2863
▁13:57:01	-2864
AG	-2865
约翰	-2866
ches	-2867
▁elect	-2868
7,	-2869
旅游	-2870
grid	-2871
▁es	-2872
▁gre	-2873
▁head	-2874
first	-2875
基础	-2876
ondon	-2877
ead	-2878
接受	-2879
Des	-2880
Hel	-2881
2009	-2882
xdoc	-2883
不是	-2884
rand	-2885
roid	-2886
▁2012	-2887
option	-2888
mt	-2889
分为	-2890
▁package	-2891
中学	-2892
▁appe	-2893
后的	-2894
美元	-2895
应用	-2896
thers	-2897
▁indiv	-2898
▁conf	-2899
▁range	-2900
▁United	-2901
改为	-2902
>>	-2903
HT	-2904
SI	-2905
▁keep	-2906
ariable	-2907
src	-2908
▁pub	-2909
实验	-2910
▁11	-2911
ought	-2912
▁States	-2913
unk	-2914
ological	-2915
PE	-2916
▁fa	-2917
▁tri	-2918
新的	-2919
▁24	-2920
国王	-2921
52	-2922
next	-2923
cd	-2924
▁think	-2925
IR	-2926
▁don	-2927
自然	-2928
专辑	-2929
win	-2930
entity	-2931
2010	-2932
ways	-2933
channel	-2934
▁supp	-2935
▁known	-2936
51	-2937
▁At	-2938
▁dise	-2939
Al	-2940
▁too	-2941
▁Te	-2942
equal	-2943
成绩	-2944
细胞	-2945
ging	-2946
▁here	-2947
合并	-2948
omen	-2949
▁expected	-2950
第四	-2951
▁catch	-2952
纪念	-2953
表现	-2954
▁2010	-2955
▁land	-2956
Mod	-2957
▁individual	-2958
lasses	-2959
语言	-2960
apt	-2961
2007	-2962
▁cli	-2963
▁scient	-2964
ffff	-2965
detail	-2966
none	-2967
.”	-2968
▁img	-2969
sidebar	-2970
▁material	-2971
71	-2972
罗马	-2973
atab	-2974
Builder	-2975
▁disease	-2976
▁bu	-2977
▁gen	-2978
remove	-2979
project	-2980
present	-2981
-19	-2982
▁0)	-2983
2006	-2984
▁valid	-2985
element	-2986
▁become	-2987
拍摄	-2988
▁cert	-2989
HO	-2990
任务	-2991
82	-2992
一种	-2993
导演	-2994
Reg	-2995
▁throws	-2996
cast	-2997
另外	-2998
2008	-2999
II	-3000
主题	-3001
▁Be	-3002
google	-3003
地方	-3004
▁See	-3005
名称	-3006
大利	-3007
End	-3008
▁(19	-3009
idget	-3010
server	-3011
▁author	-3012
'],	-3013
bg	-3014
查一下	-3015
Trans	-3016
▁except	-3017
▁normal	-3018
▁product	-3019
战斗	-3020
ung	-3021
▁num	-3022
ification	-3023
于是	-3024
Entry	-3025
uccess	-3026
▁CLASS	-3027
▁early	-3028
Of	-3029
内的	-3030
协会	-3031
▁ter	-3032
儿子	-3033
▁risk	-3034
▁action	-3035
avax	-3036
output	-3037
▁rad	-3038
很多	-3039
cell	-3040
▁against	-3041
区的	-3042
除了	-3043
sel	-3044
▁overflow	-3045
Lu	-3046
ended	-3047
▁possible	-3048
utils	-3049
fa	-3050
反应	-3051
赛事	-3052
▁another	-3053
年度	-3054
▁Search	-3055
Cache	-3056
▁mock	-3057
▁deter	-3058
规划	-3059
领导	-3060
Util	-3061
▁...	-3062
leg	-3063
▁En	-3064
▁Ad	-3065
Button	-3066
response	-3067
500	-3068
Count	-3069
".	-3070
去世	-3071
汽车	-3072
sum	-3073
filter	-3074
filename	-3075
▁percent	-3076
全球	-3077
商业	-3078
斯坦	-3079
是由	-3080
gment	-3081
Client	-3082
▁Test	-3083
▁cursor	-3084
必须	-3085
stru	-3086
aving	-3087
61	-3088
IL	-3089
di	-3090
▁che	-3091
▁await	-3092
call	-3093
Image	-3094
Label	-3095
▁either	-3096
▁transparent	-3097
」(	-3098
公路	-3099
Loc	-3100
lag	-3101
▁teach	-3102
形式	-3103
lood	-3104
东南	-3105
▁[]	-3106
wrapper	-3107
电子	-3108
Input	-3109
▁True	-3110
▁appro	-3111
atabase	-3112
▁format	-3113
设施	-3114
rel	-3115
居民	-3116
▁Ser	-3117
▁leg	-3118
▁development	-3119
还有	-3120
2>	-3121
now	-3122
▁Or	-3123
▁sug	-3124
▁However	-3125
乐部	-3126
性的	-3127
For	-3128
Select	-3129
igation	-3130
precated	-3131
ajor	-3132
tings	-3133
;<	-3134
年间	-3135
设立	-3136
ogn	-3137
ently	-3138
▁vir	-3139
Handler	-3140
以上	-3141
南京	-3142
▁move	-3143
parent	-3144
▁element	-3145
功能	-3146
hor	-3147
▁32	-3148
是什么	-3149
ersion	-3150
▁remain	-3151
日期	-3152
东京	-3153
oApp	-3154
▁小	-3155
loy	-3156
俱乐部	-3157
.0	-3158
执行	-3159
from	-3160
▁map	-3161
ittle	-3162
也有	-3163
治疗	-3164
asure	-3165
▁comput	-3166
Tok	-3167
ets	-3168
Comm	-3169
▁since	-3170
▁string	-3171
bon	-3172
▁By	-3173
ites	-3174
decor	-3175
izer	-3176
(16	-3177
ggle	-3178
ances	-3179
▁indic	-3180
modal	-3181
padding	-3182
Selection	-3183
Top	-3184
▁2,	-3185
▁rece	-3186
一世	-3187
共同	-3188
提出	-3189
纪录	-3190
With	-3191
mm	-3192
▁following	-3193
tn	-3194
2019	-3195
Property	-3196
▁Cal	-3197
column	-3198
Double	-3199
下的	-3200
SC	-3201
sm	-3202
train	-3203
军事	-3204
重新	-3205
▁gra	-3206
▁anal	-3207
▁free	-3208
人类	-3209
Query	-3210
float	-3211
wrap	-3212
▁put	-3213
搜索一下	-3214
▁Sp	-3215
95	-3216
创作	-3217
各种	-3218
家族	-3219
▁Ass	-3220
▁sim	-3221
▁says	-3222
scription	-3223
▁fo	-3224
博士	-3225
设置	-3226
show	-3227
人民共和国	-3228
▁Acc	-3229
▁Ste	-3230
▁Fran	-3231
部门	-3232
ours	-3233
ready	-3234
▁ge	-3235
的发展	-3236
是一种	-3237
TO	-3238
赛季	-3239
▁All	-3240
▁2009	-3241
的天气	-3242
加拿	-3243
设备	-3244
▁Ne	-3245
User	-3246
ably	-3247
Point	-3248
4>	-3249
军队	-3250
部队	-3251
run	-3252
gener	-3253
产业	-3254
分析	-3255
能够	-3256
property	-3257
这是	-3258
json	-3259
icy	-3260
▁success	-3261
▁vert	-3262
好的	-3263
▁bi	-3264
2005	-3265
ored	-3266
96	-3267
▁pla	-3268
▁based	-3269
vr	-3270
Style	-3271
▁later	-3272
举办	-3273
浙江	-3274
close	-3275
▁port	-3276
bug	-3277
PI	-3278
:1	-3279
十一	-3280
博物	-3281
▁ant	-3282
▁version	-3283
三个	-3284
Met	-3285
▁60	-3286
▁description	-3287
太阳	-3288
stit	-3289
kw	-3290
yo	-3291
直到	-3292
高速	-3293
ills	-3294
resh	-3295
▁cla	-3296
build	-3297
注意	-3298
Get	-3299
▁God	-3300
发布	-3301
理论	-3302
▁adv	-3303
▁eng	-3304
margin	-3305
而且	-3306
指挥	-3307
LuCI	-3308
定的	-3309
山东	-3310
tal	-3311
▁character	-3312
实际	-3313
▁dom	-3314
▁objects	-3315
▁\	-3316
Act	-3317
ialog	-3318
▁System	-3319
基本	-3320
配音	-3321
▁gu	-3322
white	-3323
hether	-3324
四年	-3325
Attribute	-3326
▁新	-3327
母亲	-3328
选举	-3329
▁'/	-3330
version	-3331
▁李	-3332
="/	-3333
Box	-3334
2000	-3335
gen	-3336
UL	-3337
实现	-3338
ica	-3339
ention	-3340
▁请	-3341
ico	-3342
lin	-3343
opt	-3344
ability	-3345
版本	-3346
联邦	-3347
达到	-3348
▁flu	-3349
主持	-3350
大量	-3351
ands	-3352
ret	-3353
DA	-3354
女子	-3355
甚至	-3356
Manager	-3357
完全	-3358
ison	-3359
条件	-3360
综合	-3361
ains	-3362
▁Sch	-3363
▁bro	-3364
▁mode	-3365
ounter	-3366
另一	-3367
lif	-3368
▁cau	-3369
tra	-3370
▁2013	-3371
Method	-3372
行动	-3373
▁py	-3374
▁ve	-3375
ians	-3376
ector	-3377
istry	-3378
idence	-3379
调查	-3380
随后	-3381
86	-3382
">&	-3383
COL	-3384
sole	-3385
ication	-3386
▁understand	-3387
Block	-3388
Ed	-3389
xy	-3390
ergy	-3391
aut	-3392
ims	-3393
unc	-3394
▁bas	-3395
Equals	-3396
▁section	-3397
").	-3398
hes	-3399
▁cho	-3400
广东	-3401
Null	-3402
(){	-3403
▁initial	-3404
05	-3405
Op	-3406
总统	-3407
bit	-3408
pack	-3409
▁aut	-3410
split	-3411
Be	-3412
decoration	-3413
:「	-3414
亚洲	-3415
年在	-3416
资源	-3417
西班	-3418
这样	-3419
alt	-3420
▁{'	-3421
规模	-3422
西班牙	-3423
▁Some	-3424
double	-3425
▁collection	-3426
2011	-3427
ched	-3428
▁best	-3429
再次	-3430
击败	-3431
分类	-3432
经营	-3433
行为	-3434
▁第一	-3435
电视剧	-3436
▁iss	-3437
cf	-3438
▁『	-3439
亿元	-3440
希望	-3441
报告	-3442
材料	-3443
轨道	-3444
▁One	-3445
ember	-3446
▁custom	-3447
arr	-3448
sem	-3449
defined	-3450
广播	-3451
null	-3452
▁Man	-3453
加拿大	-3454
Fact	-3455
▁struct	-3456
():	-3457
ios	-3458
alert	-3459
▁entry	-3460
▁amount	-3461
小时	-3462
▁cause	-3463
一样	-3464
西南	-3465
▁pur	-3466
▁period	-3467
▁cur	-3468
▁请帮我	-3469
enn	-3470
▁US	-3471
中华人民共和国	-3472
▁service	-3473
,”	-3474
.)	-3475
▁Ro	-3476
线路	-3477
▁pract	-3478
▁family	-3479
一次	-3480
毫米	-3481
da	-3482
▁eas	-3483
totype	-3484
▁major	-3485
instance	-3486
pi	-3487
▁short	-3488
东北	-3489
>0	-3490
BR	-3491
分钟	-3492
▁black	-3493
▁Christ	-3494
▁say	-3495
▁equal	-3496
8.	-3497
▁Aug	-3498
包含	-3499
ana	-3500
2020	-3501
aces	-3502
柴油	-3503
物种	-3504
行业	-3505
Cell	-3506
urther	-3507
▁signific	-3508
atal	-3509
▁fore	-3510
▁subject	-3511
87	-3512
acy	-3513
entry	-3514
though	-3515
玩家	-3516
▁John	-3517
artment	-3518
ignment	-3519
▁increase	-3520
平均	-3521
reate	-3522
多数	-3523
博物馆	-3524
heet	-3525
>,	-3526
媒体	-3527
它们	-3528
Date	-3529
ired	-3530
▁0.3	-3531
ledge	-3532
scale	-3533
try	-3534
send	-3535
文学	-3536
endar	-3537
Listener	-3538
▁alt	-3539
▁plant	-3540
▁problem	-3541
▁interest	-3542
(3	-3543
曾经	-3544
uster	-3545
eturns	-3546
▁better	-3547
相当	-3548
acc	-3549
ook	-3550
attr	-3551
▁nav	-3552
最初	-3553
MO	-3554
▁government	-3555
战役	-3556
日在	-3557
青年	-3558
ront	-3559
▁Int	-3560
Reference	-3561
bove	-3562
lean	-3563
,“	-3564
阶段	-3565
ique	-3566
▁Ge	-3567
most	-3568
▁turn	-3569
▁Array	-3570
▁single	-3571
toggle	-3572
▁created	-3573
▁software	-3574
连续	-3575
len	-3576
▁['	-3577
thon	-3578
▁near	-3579
onents	-3580
广场	-3581
元年	-3582
Off	-3583
▁school	-3584
以来	-3585
四川	-3586
▁}}	-3587
tile	-3588
normal	-3589
子的	-3590
▁50%;	-3591
▁higher	-3592
TED	-3593
^="	-3594
lide	-3595
▁least	-3596
▁qual	-3597
common	-3598
▁month	-3599
97	-3600
模式	-3601
适合	-3602
▁((	-3603
Base	-3604
共有	-3605
或者	-3606
▁clo	-3607
▁中	-3608
数量	-3609
▁del	-3610
▁task	-3611
质量	-3612
number	-3613
Options	-3614
▁community	-3615
stract	-3616
stream	-3617
▁several	-3618
▁particular	-3619
河南	-3620
2004	-3621
%);	-3622
ilar	-3623
Status	-3624
target	-3625
Imp	-3626
英格兰	-3627
2017	-3628
▁Act	-3629
▁raise	-3630
▁until	-3631
Document	-3632
播出	-3633
进士	-3634
False	-3635
author	-3636
effect	-3637
2016	-3638
-5	-3639
02	-3640
运营	-3641
▁Pe	-3642
▁ins	-3643
indows	-3644
▁econom	-3645
df	-3646
距离	-3647
mfb	-3648
require	-3649
▁problems	-3650
sl	-3651
三十	-3652
比较	-3653
ributes	-3654
CH	-3655
rect	-3656
▁conc	-3657
ilities	-3658
EL	-3659
▁justify	-3660
▁perform	-3661
ternational	-3662
资料	-3663
运输	-3664
eder	-3665
▁bit	-3666
▁means	-3667
{{	-3668
地理	-3669
indo	-3670
持续	-3671
token	-3672
▁four	-3673
▁special	-3674
克斯	-3675
ats	-3676
▁3.	-3677
ecut	-3678
▁Med	-3679
ciety	-3680
rowser	-3681
交易	-3682
福建	-3683
="../	-3684
▁above	-3685
葡萄	-3686
ages	-3687
parse	-3688
Default	-3689
service	-3690
OL	-3691
ze	-3692
动画	-3693
类似	-3694
2.0	-3695
ged	-3696
▁IS	-3697
vided	-3698
Ph	-3699
▁lik	-3700
▁pay	-3701
serif	-3702
酒店	-3703
uel	-3704
ideo	-3705
press	-3706
▁mean	-3707
styles	-3708
▁pointer	-3709
▁fail	-3710
atory	-3711
▁2020	-3712
▁rest	-3713
重点	-3714
▁该	-3715
汇丰	-3716
▁row	-3717
▁suggest	-3718
>(	-3719
全部	-3720
的历史	-3721
▁previous	-3722
原因	-3723
拉斯	-3724
飞机	-3725
car	-3726
▁impro	-3727
TI	-3728
ots	-3729
join	-3730
▁original	-3731
尔斯	-3732
▁opt	-3733
▁waves	-3734
不会	-3735
▁os	-3736
(0);	-3737
▁May	-3738
。199	-3739
▁August	-3740
84	-3741
▁global	-3742
)(	-3743
ley	-3744
anger	-3745
▁National	-3746
UP	-3747
街道	-3748
领域	-3749
Dec	-3750
▁ill	-3751
Width	-3752
place	-3753
94	-3754
增长	-3755
served	-3756
2018	-3757
▁belie	-3758
reed	-3759
▁prob	-3760
Change	-3761
▁column	-3762
▁represent	-3763
境内	-3764
攻击	-3765
gov	-3766
lib	-3767
2003	-3768
Mode	-3769
▁past	-3770
▁send	-3771
////////	-3772
▁distributed	-3773
mi	-3774
意大利	-3775
ival	-3776
push	-3777
英语	-3778
还是	-3779
2012	-3780
评价	-3781
dep	-3782
see	-3783
raft	-3784
board	-3785
▁associ	-3786
(4	-3787
CC	-3788
arning	-3789
▁马	-3790
主任	-3791
之间的	-3792
acing	-3793
change	-3794
▁files	-3795
出了	-3796
▁No	-3797
电视台	-3798
aper	-3799
▁little	-3800
Nav	-3801
▁$(	-3802
iness	-3803
▁week	-3804
▁always	-3805
万元	-3806
五年	-3807
教学	-3808
▁fin	-3809
▁already	-3810
人们	-3811
提高	-3812
rial	-3813
ading	-3814
▁published	-3815
主角	-3816
风格	-3817
product	-3818
▁provided	-3819
eger	-3820
▁sun	-3821
地下	-3822
太平	-3823
排名	-3824
特征	-3825
atter	-3826
资格	-3827
lan	-3828
▁"1"	-3829
,《	-3830
DD	-3831
唯一	-3832
蒙古	-3833
ores	-3834
▁property	-3835
建造	-3836
文物	-3837
nth	-3838
▁pot	-3839
一步	-3840
教堂	-3841
alf	-3842
unit	-3843
▁age	-3844
▁far	-3845
ha	-3846
克里	-3847
(2	-3848
UE	-3849
]);	-3850
▁State	-3851
document	-3852
农业	-3853
▁-1	-3854
▁areas	-3855
▁course	-3856
▁education	-3857
rie	-3858
Last	-3859
Resource	-3860
演出	-3861
Range	-3862
verse	-3863
Sc	-3864
命名	-3865
物质	-3866
空间	-3867
西部	-3868
part	-3869
▁fam	-3870
▁plan	-3871
政策	-3872
INT	-3873
隶属于	-3874
aken	-3875
▁Mar	-3876
▁things	-3877
jsp	-3878
运动员	-3879
uary	-3880
▁tag	-3881
▁others	-3882
他们的	-3883
success	-3884
jq	-3885
记载	-3886
Emp	-3887
▁pain	-3888
module	-3889
▁whether	-3890
锦标	-3891
ounds	-3892
▁question	-3893
离开	-3894
pay	-3895
typ	-3896
▁AN	-3897
▁args	-3898
▁side	-3899
▁step	-3900
delete	-3901
▁lower	-3902
-9	-3903
纽约	-3904
▁Dr	-3905
case	-3906
Call	-3907
▁energy	-3908
▁significant	-3909
=[	-3910
▁changes	-3911
方向	-3912
▁behav	-3913
replace	-3914
ones	-3915
opyright	-3916
速度	-3917
YPE	-3918
▁vertical	-3919
Ad	-3920
统治	-3921
自治	-3922
2015	-3923
anged	-3924
▁Stud	-3925
大型	-3926
深度	-3927
Ass	-3928
une	-3929
▁Go	-3930
平台	-3931
运行	-3932
(--	-3933
▁equ	-3934
▁rou	-3935
COLOR	-3936
urope	-3937
▁selection	-3938
cod	-3939
lor	-3940
▁3,	-3941
不同的	-3942
rl	-3943
agn	-3944
Entity	-3945
quence	-3946
▁prevent	-3947
▁王	-3948
事务	-3949
土地	-3950
exp	-3951
▁再乘以	-3952
Height	-3953
克兰	-3954
rec	-3955
▁ben	-3956
▁among	-3957
agement	-3958
▁million	-3959
并于	-3960
ptional	-3961
▁collect	-3962
prototype	-3963
owl	-3964
creen	-3965
▁Health	-3966
▁client	-3967
%。	-3968
在此	-3969
shape	-3970
disabled	-3971
▁address	-3972
二世	-3973
目标	-3974
西北	-3975
inn	-3976
▁饰演	-3977
2013	-3978
▁social	-3979
▁—	-3980
早期	-3981
▁continue	-3982
▁variable	-3983
▁1)	-3984
等于几	-3985
▁的结果乘以	-3986
▁cannot	-3987
引起	-3988
第一次	-3989
ames	-3990
韩国	-3991
Part	-3992
▁gas	-3993
▁able	-3994
blockList	-3995
Layer	-3996
▁region	-3997
作曲	-3998
▁men	-3999
▁blood	-4000
(_	-4001
▁air	-4002
annot	-4003
......	-4004
但在	-4005
的女	-4006
严重	-4007
▁done	-4008
offset	-4009
发表	-4010
nal	-4011
thern	-4012
▁sche	-4013
hidden	-4014
▁javax	-4015
description	-4016
然后	-4017
++)	-4018
-12	-4019
被称为	-4020
▁days	-4021
public	-4022
▁window	-4023
单曲	-4024
实施	-4025
URL	-4026
aff	-4027
▁cult	-4028
83	-4029
▁我	-4030
需求	-4031
。18	-4032
▁arch	-4033
今日	-4034
▁close	-4035
健康	-4036
11_	-4037
▁bl	-4038
SPAN	-4039
RI	-4040
Sub	-4041
click	-4042
并不	-4043
way	-4044
Number	-4045
▁Class	-4046
▁extends	-4047
iles	-4048
ured	-4049
radient	-4050
▁instead	-4051
▁Exception	-4052
MS	-4053
两人	-4054
▁comb	-4055
▁certain	-4056
公开	-4057
And	-4058
oname	-4059
▁300	-4060
▁invol	-4061
reponame	-4062
93	-4063
地铁	-4064
贝尔	-4065
选手	-4066
▁2018	-4067
行政区	-4068
▁App	-4069
▁systems	-4070
NT	-4071
办公	-4072
学位	-4073
incip	-4074
▁hard	-4075
comment	-4076
图书	-4077
imum	-4078
澳门	-4079
▁''	-4080
illi	-4081
▁dim	-4082
▁needs	-4083
▁高	-4084
怎么	-4085
▁fac	-4086
92	-4087
SON	-4088
▁press	-4089
▁applic	-4090
孩子	-4091
area	-4092
有的	-4093
▁word	-4094
保持	-4095
基督	-4096
描述	-4097
utes	-4098
igger	-4099
▁temper	-4100
AY	-4101
开放	-4102
ued	-4103
部长	-4104
ops	-4105
▁OR	-4106
TH	-4107
多的	-4108
整个	-4109
机械	-4110
公共	-4111
Left	-4112
▁Not	-4113
▁des	-4114
▁red	-4115
▁cost	-4116
教师	-4117
▁OF	-4118
▁],	-4119
▁hy	-4120
▁中国	-4121
最大的	-4122
struction	-4123
澳大	-4124
▁Fe	-4125
▁2016	-4126
▁seem	-4127
剧情	-4128
左右	-4129
的高	-4130
精神	-4131
aps	-4132
▁module	-4133
二年	-4134
连接	-4135
ero	-4136
▁century	-4137
ca	-4138
知道	-4139
训练	-4140
false	-4141
▁along	-4142
Instance	-4143
structor	-4144
▁resource	-4145
随着	-4146
▁grid	-4147
▁necess	-4148
不久	-4149
她的	-4150
都会	-4151
operator	-4152
▁services	-4153
EX	-4154
Bar	-4155
Per	-4156
▁Su	-4157
▁["	-4158
▁mer	-4159
Action	-4160
兄弟	-4161
者的	-4162
Rec	-4163
▁async	-4164
andle	-4165
Factory	-4166
▁London	-4167
ationship	-4168
▁standard	-4169
坦克	-4170
规定	-4171
clude	-4172
▁天	-4173
ensor	-4174
▁2017	-4175
▁当	-4176
ns	-4177
准备	-4178
背景	-4179
ttp	-4180
▁Do	-4181
2014	-4182
▁server	-4183
▁multiply	-4184
▁something	-4185
Ob	-4186
为主	-4187
foo	-4188
lev	-4189
▁('	-4190
▁sent	-4191
▁site	-4192
群岛	-4193
▁protected	-4194
有效	-4195
ugin	-4196
▁implement	-4197
hy	-4198
基地	-4199
建成	-4200
快速	-4201
挑战	-4202
歌手	-4203
jqx	-4204
loc	-4205
ove	-4206
▁happ	-4207
widget	-4208
▁inher	-4209
▁filter	-4210
身份	-4211
Case	-4212
▁tre	-4213
▁war	-4214
Valid	-4215
大战	-4216
改编	-4217
small	-4218
issions	-4219
reference	-4220
。」	-4221
xml	-4222
▁due	-4223
▁Gener	-4224
▁header	-4225
仍然	-4226
▁Ab	-4227
ales	-4228
holder	-4229
东部	-4230
▁With	-4231
▁sure	-4232
▁Research	-4233
名字	-4234
ada	-4235
eds	-4236
well	-4237
▁sans	-4238
component	-4239
BC	-4240
▁bird	-4241
▁False	-4242
▁begin	-4243
09	-4244
Sp	-4245
其后	-4246
赢得	-4247
Que	-4248
From	-4249
▁kind	-4250
▁types	-4251
▁Europe	-4252
▁pattern	-4253
identifier	-4254
▁evolution	-4255
81	-4256
LI	-4257
法院	-4258
gre	-4259
▁Co	-4260
soft	-4261
▁API	-4262
▁ask	-4263
▁obt	-4264
▁simple	-4265
地球	-4266
wp	-4267
上映	-4268
第五	-4269
Well	-4270
▁usually	-4271
▁training	-4272
”(	-4273
回到	-4274
建议	-4275
死亡	-4276
铁道	-4277
:10	-4278
fui	-4279
ctor	-4280
▁Jap	-4281
stars	-4282
法律	-4283
简称	-4284
记录	-4285
CODE	-4286
mode	-4287
主演	-4288
明朝	-4289
▁squ	-4290
▁account	-4291
▁Add	-4292
不断	-4293
使得	-4294
氧化	-4295
uff	-4296
ached	-4297
ained	-4298
▁accept	-4299
▁console	-4300
恢复	-4301
经历	-4302
ysis	-4303
04	-4304
伦敦	-4305
最大	-4306
circ	-4307
Layout	-4308
▁Des	-4309
▁query	-4310
CE	-4311
议员	-4312
ARR	-4313
rat	-4314
2002	-4315
cies	-4316
▁CON	-4317
▁mus	-4318
lying	-4319
▁future	-4320
少年	-4321
的新	-4322
direction	-4323
基金	-4324
cle	-4325
ilt	-4326
的主要	-4327
mate	-4328
anced	-4329
primary	-4330
过去	-4331
oto	-4332
xs	-4333
学名	-4334
▁**	-4335
▁等于	-4336
▁full	-4337
▁pres	-4338
ategory	-4339
▁android	-4340
▁complet	-4341
▁writing	-4342
创新	-4343
提升	-4344
斯科	-4345
ili	-4346
adata	-4347
wards	-4348
▁2008	-4349
▁dest	-4350
Header	-4351
▁never	-4352
eta	-4353
ABLE	-4354
uded	-4355
▁First	-4356
▁conditions	-4357
建于	-4358
local	-4359
▁groups	-4360
▁Ag	-4361
▁计算	-4362
pres	-4363
sets	-4364
▁Dis	-4365
▁mar	-4366
const	-4367
▁2015	-4368
▁html	-4369
王国	-4370
pose	-4371
props	-4372
逝世	-4373
金融	-4374
uss	-4375
2001	-4376
year	-4377
▁mem	-4378
▁sit	-4379
▁late	-4380
Source	-4381
▁became	-4382
2_	-4383
国民	-4384
社区	-4385
obj	-4386
Inter	-4387
duration	-4388
▁methods	-4389
物理	-4390
状态	-4391
,000	-4392
oman	-4393
valu	-4394
▁Ear	-4395
range	-4396
witch	-4397
委会	-4398
皇帝	-4399
马来	-4400
ster	-4401
Buffer	-4402
▁write	-4403
▁young	-4404
进一步	-4405
尽管	-4406
▁Tok	-4407
▁symp	-4408
collection	-4409
广泛	-4410
民主	-4411
飞行	-4412
▁death	-4413
▁affect	-4414
价值	-4415
加坡	-4416
▁likely	-4417
课程	-4418
special	-4419
DT	-4420
告诉	-4421
频道	-4422
fic	-4423
fix	-4424
bind	-4425
▁met	-4426
▁remo	-4427
static	-4428
▁length	-4429
▁country	-4430
▁learning	-4431
▁According	-4432
two	-4433
▁Ref	-4434
▁2019	-4435
▁away	-4436
▁enough	-4437
▁similar	-4438
▁contains	-4439
:2	-4440
TC	-4441
ny	-4442
级联赛	-4443
like	-4444
▁contact	-4445
▁activity	-4446
▁金	-4447
交流	-4448
小学	-4449
年轻	-4450
监督	-4451
荣誉	-4452
sing	-4453
istor	-4454
▁translateY	-4455
PL	-4456
十三	-4457
等地	-4458
('/	-4459
ief	-4460
tip	-4461
ynam	-4462
▁flow	-4463
▁however	-4464
Cl	-4465
Pr	-4466
▁阿	-4467
内部	-4468
未来	-4469
hvr	-4470
▁eff	-4471
先后	-4472
国内	-4473
的时候	-4474
dr	-4475
六年	-4476
减少	-4477
▁btn	-4478
Column	-4479
Channel	-4480
出生于	-4481
used	-4482
gradient	-4483
▁三	-4484
收入	-4485
来源	-4486
Fil	-4487
Temp	-4488
▁North	-4489
▁thought	-4490
:5	-4491
结合	-4492
300	-4493
Dis	-4494
sure	-4495
▁Data	-4496
'>	-4497
又称	-4498
论是	-4499
中国大陆	-4500
澳大利亚	-4501
ering	-4502
▁loss	-4503
▁levels	-4504
▁discover	-4505
希腊	-4506
jspx	-4507
First	-4508
iforn	-4509
tl	-4510
一名	-4511
议会	-4512
▁Ap	-4513
aring	-4514
gether	-4515
▁token	-4516
mw	-4517
朋友	-4518
mic	-4519
-6	-4520
的第	-4521
经常	-4522
都市	-4523
"))	-4524
rodu	-4525
zz	-4526
相同	-4527
逐渐	-4528
CON	-4529
ards	-4530
ellow	-4531
collap	-4532
所在	-4533
▁words	-4534
▁recogn	-4535
身体	-4536
uid	-4537
▁fig	-4538
izont	-4539
second	-4540
process	-4541
svg	-4542
乌克兰	-4543
host	-4544
▁2014	-4545
Output	-4546
ington	-4547
servation	-4548
BO	-4549
个月	-4550
将其	-4551
▁Af	-4552
▁!==	-4553
▁That	-4554
ournal	-4555
▁influ	-4556
▁measure	-4557
民族	-4558
▁80	-4559
inst	-4560
▁Rep	-4561
▁making	-4562
▁technology	-4563
If	-4564
ram	-4565
▁memb	-4566
▁works	-4567
▁treatment	-4568
最早	-4569
表面	-4570
证券	-4571
clear	-4572
▁women	-4573
fficult	-4574
▁entity	-4575
location	-4576
ony	-4577
step	-4578
▁activ	-4579
▁further	-4580
0;	-4581
Su	-4582
地震	-4583
文库	-4584
股份	-4585
Exp	-4586
▁World	-4587
▁complex	-4588
times	-4589
▁host	-4590
▁total	-4591
come	-4592
▁Check	-4593
▁greater	-4594
▁population	-4595
np	-4596
年后	-4597
▁",	-4598
大部分	-4599
pped	-4600
▁weight	-4601
▁effects	-4602
▁reference	-4603
列表	-4604
陆军	-4605
ctx	-4606
anel	-4607
▁command	-4608
▁assertEquals	-4609
官方	-4610
重庆	-4611
现在的	-4612
loss	-4613
pass	-4614
room	-4615
Loader	-4616
pecially	-4617
1/	-4618
的小	-4619
等人	-4620
"],	-4621
Ext	-4622
gr	-4623
一位	-4624
作家	-4625
男子	-4626
theme	-4627
▁Here	-4628
▁Sc	-4629
Char	-4630
aded	-4631
Const	-4632
▁convert	-4633
东方	-4634
发动	-4635
喜欢	-4636
水平	-4637
贸易	-4638
lip	-4639
▁IN	-4640
iting	-4641
▁inte	-4642
▁double	-4643
▁America	-4644
皇家	-4645
革命	-4646
第二次	-4647
ky	-4648
MAR	-4649
mbol	-4650
▁feel	-4651
umbers	-4652
▁strong	-4653
娱乐	-4654
演唱	-4655
Num	-4656
▁ey	-4657
orts	-4658
udio	-4659
▁upper	-4660
FA	-4661
学者	-4662
[1]	-4663
met	-4664
_1_1	-4665
▁elif	-4666
公布	-4667
多个	-4668
尔德	-4669
▁Dar	-4670
inary	-4671
▁Step	-4672
▁various	-4673
改变	-4674
特殊	-4675
▁detail	-4676
▁middle	-4677
aged	-4678
ifornia	-4679
▁resources	-4680
5;	-4681
▁'1	-4682
Utils	-4683
throws	-4684
izontal	-4685
▁difficult	-4686
'])	-4687
mar	-4688
▁22	-4689
▁0);	-4690
brary	-4691
values	-4692
▁questions	-4693
3_	-4694
IO	-4695
▁先	-4696
Tab	-4697
1999	-4698
▁pas	-4699
▁estab	-4700
云南	-4701
属的	-4702
ental	-4703
micro	-4704
▁bank	-4705
VAL	-4706
lies	-4707
mock	-4708
▁reason	-4709
力量	-4710
医学	-4711
年起	-4712
车辆	-4713
oll	-4714
urg	-4715
▁sex	-4716
login	-4717
Length	-4718
▁cases	-4719
居住	-4720
法兰	-4721
HTML	-4722
Next	-4723
▁expla	-4724
森林	-4725
▁2007	-4726
▁2022	-4727
(8	-4728
91	-4729
推出	-4730
level	-4731
▁Brit	-4732
apping	-4733
session	-4734
▁having	-4735
▁南	-4736
医疗	-4737
表演	-4738
ift	-4739
▁35	-4740
平方米	-4741
itect	-4742
同样	-4743
奥斯	-4744
hel	-4745
batch	-4746
itude	-4747
及其	-4748
统计	-4749
解放	-4750
(17	-4751
▁2000	-4752
▁related	-4753
台北	-4754
▁unit	-4755
Offset	-4756
▁below	-4757
▁knowledge	-4758
gn	-4759
继承	-4760
rest	-4761
▁255,	-4762
custom	-4763
▁render	-4764
▁与	-4765
VER	-4766
full	-4767
orch	-4768
sect	-4769
atase	-4770
ender	-4771
▁volume	-4772
▁physical	-4773
公尺	-4774
则是	-4775
美洲	-4776
路易	-4777
uck	-4778
获得了	-4779
1998	-4780
▁bus	-4781
▁going	-4782
enses	-4783
▁live	-4784
▁logger	-4785
▁rights	-4786
山西	-4787
时的	-4788
是否	-4789
类型	-4790
长期	-4791
hent	-4792
apter	-4793
spring	-4794
▁After	-4795
的结	-4796
auto	-4797
posed	-4798
▁benef	-4799
价格	-4800
儿童	-4801
十分	-4802
妻子	-4803
漫画	-4804
(25	-4805
asing	-4806
istic	-4807
▁frame	-4808
▁California	-4809
At	-4810
EE	-4811
400	-4812
Url	-4813
Body	-4814
▁jindo	-4815
▁update	-4816
▁concern	-4817
比亚	-4818
can	-4819
vas	-4820
情况下	-4821
进行了	-4822
重要的	-4823
patch	-4824
▁carbon	-4825
▁screen	-4826
任命	-4827
变成	-4828
大约	-4829
教练	-4830
著作	-4831
eter	-4832
▁once	-4833
GCOLOR	-4834
▁enter	-4835
▁callback	-4836
▁container	-4837
je	-4838
城区	-4839
评论	-4840
1.5	-4841
txt	-4842
chan	-4843
va	-4844
▁得	-4845
dist	-4846
leep	-4847
▁added	-4848
不可	-4849
改制	-4850
色的	-4851
oup	-4852
char	-4853
repo	-4854
▁Afric	-4855
sup	-4856
▁While	-4857
absolute	-4858
▁medical	-4859
▁evidence	-4860
▁especially	-4861
06	-4862
TT	-4863
ks	-4864
▁张	-4865
机会	-4866
▁component	-4867
体的	-4868
指出	-4869
过程中	-4870
▁crit	-4871
actions	-4872
▁active	-4873
03	-4874
Ro	-4875
球会	-4876
pop	-4877
▁quality	-4878
(!	-4879
:《	-4880
Po	-4881
的前	-4882
wise	-4883
▁Set	-4884
▁meet	-4885
▁root	-4886
▁profe	-4887
▁indust	-4888
介绍	-4889
历程	-4890
司令	-4891
普通	-4892
高中	-4893
(10	-4894
研究所	-4895
blog	-4896
ides	-4897
▁Dep	-4898
▁dam	-4899
ising	-4900
types	-4901
9;	-4902
团队	-4903
申请	-4904
Run	-4905
riday	-4906
▁separ	-4907
。《	-4908
▁tf	-4909
ouch	-4910
▁Reg	-4911
▁colle	-4912
▁potential	-4913
ox	-4914
长的	-4915
desc	-4916
nown	-4917
▁(18	-4918
▁Cor	-4919
depend	-4920
BS	-4921
sd	-4922
发射	-4923
牠们	-4924
big	-4925
oods	-4926
usion	-4927
▁states	-4928
卡尔	-4929
反对	-4930
medi	-4931
sych	-4932
layer	-4933
▁upon	-4934
巴黎	-4935
地区的	-4936
vider	-4937
▁team	-4938
▁invest	-4939
▁rather	-4940
icker	-4941
▁give	-4942
▁Could	-4943
2=	-4944
维尔	-4945
起来	-4946
more	-4947
vers	-4948
files	-4949
ository	-4950
应该	-4951
而在	-4952
era	-4953
toms	-4954
▁anim	-4955
)-	-4956
动力	-4957
改革	-4958
fmt	-4959
平方公里	-4960
制度	-4961
原本	-4962
它的	-4963
王朝	-4964
进攻	-4965
分布于	-4966
mical	-4967
▁100%	-4968
igital	-4969
▁impact	-4970
Fe	-4971
▁「	-4972
年被	-4973
朝鲜	-4974
Tra	-4975
▁Get	-4976
▁prom	-4977
▁q	-4978
记者	-4979
Arg	-4980
dal	-4981
domain	-4982
▁liter	-4983
▁specified	-4984
9,	-4985
▁NO	-4986
相对	-4987
阿拉	-4988
blue	-4989
anner	-4990
▁answ	-4991
▁西	-4992
Det	-4993
del	-4994
▁cr	-4995
▁Jan	-4996
▁bar	-4997
▁que	-4998
erman	-4999
▁fire	-5000
formed	-5001
▁commit	-5002
channels	-5003
ga	-5004
这里	-5005
▁>=	-5006
orig	-5007
▁dem	-5008
▁drop	-5009
▁stop	-5010
▁match	-5011
▁Friday	-5012
3;	-5013
▁北	-5014
初期	-5015
收录	-5016
无线	-5017
的主	-5018
▁ign	-5019
device	-5020
calendar	-5021
▁determin	-5022
观众	-5023
lem	-5024
omb	-5025
▁Qu	-5026
ools	-5027
where	-5028
▁polit	-5029
▁handler	-5030
▁according	-5031
来说	-5032
每年	-5033
责任	-5034
▁cy	-5035
▁Wash	-5036
▁load	-5037
iction	-5038
▁reduce	-5039
▁BGCOLOR	-5040
FO	-5041
▁安	-5042
大道	-5043
-10	-5044
Pre	-5045
▁His	-5046
Frame	-5047
▁className	-5048
图书馆	-5049
太平洋	-5050
fill	-5051
urch	-5052
▁came	-5053
▁perm	-5054
▁rate	-5055
▁database	-5056
一年	-5057
▁14,	-5058
lg	-5059
伯特	-5060
解决	-5061
锦标赛	-5062
root	-5063
▁Map	-5064
plate	-5065
▁remove	-5066
▁session	-5067
})	-5068
协议	-5069
斯的	-5070
pos	-5071
ried	-5072
▁neg	-5073
▁device	-5074
animation	-5075
奥运	-5076
Right	-5077
▁2005	-5078
▁trad	-5079
equals	-5080
▁argument	-5081
▁location	-5082
ux	-5083
▁;	-5084
日子	-5085
生于	-5086
高等	-5087
ibr	-5088
rib	-5089
▁td	-5090
graph	-5091
▁across	-5092
▁English	-5093
▁working	-5094
'.	-5095
七年	-5096
流行	-5097
▁$('	-5098
Check	-5099
oo	-5100
程度	-5101
Properties	-5102
塞尔	-5103
long	-5104
▁West	-5105
▁Copyright	-5106
2"	-5107
东西	-5108
德里	-5109
ients	-5110
▁meta	-5111
CL	-5112
稳定	-5113
ATE	-5114
izes	-5115
then	-5116
Gener	-5117
▁Darwin	-5118
▁handle	-5119
不得	-5120
中文	-5121
知识	-5122
-18	-5123
▁Ed	-5124
新加坡	-5125
icles	-5126
▁offic	-5127
6;	-5128
专家	-5129
书记	-5130
杂志	-5131
议院	-5132
ali	-5133
irm	-5134
怎么样	-5135
▁typ	-5136
Token	-5137
ederal	-5138
品牌	-5139
对手	-5140
董事	-5141
Font	-5142
oney	-5143
之外	-5144
优秀	-5145
团体	-5146
64.	-5147
▁Gu	-5148
Page	-5149
cloud	-5150
attern	-5151
▁really	-5152
Pl	-5153
了解	-5154
祖父	-5155
ney	-5156
This	-5157
dest	-5158
▁Def	-5159
▁Per	-5160
▁events	-5161
▁record	-5162
ya	-5163
确定	-5164
bal	-5165
window	-5166
(5	-5167
>.	-5168
▁sage	-5169
vention	-5170
▁CO	-5171
的一种	-5172
Host	-5173
▁term	-5174
▁Inter	-5175
▁晴	-5176
▁fuel	-5177
▁rain	-5178
▁plants	-5179
▁application	-5180
会在	-5181
如何	-5182
维亚	-5183
维奇	-5184
▁War	-5185
▁why	-5186
Parser	-5187
▁Trans	-5188
▁theory	-5189
▁together	-5190
▁connection	-5191
几乎	-5192
组合	-5193
至今	-5194
ips	-5195
edit	-5196
sche	-5197
tabs	-5198
▁countries	-5199
双方	-5200
天津	-5201
学科	-5202
明治	-5203
每个	-5204
jes	-5205
▁TO	-5206
mail	-5207
Speci	-5208
▁seen	-5209
州市	-5210
明显	-5211
销售	-5212
▁Pa	-5213
alle	-5214
▁Paris	-5215
AA	-5216
事业	-5217
指导	-5218
调整	-5219
rix	-5220
lier	-5221
政治人物	-5222
istics	-5223
▁though	-5224
▁computer	-5225
▁developed	-5226
作战	-5227
影片	-5228
疾病	-5229
iding	-5230
▁gdal	-5231
kwargs	-5232
▁itself	-5233
${	-5234
食物	-5235
ius	-5236
的影响	-5237
erci	-5238
▁skin	-5239
▁adult	-5240
PS	-5241
从事	-5242
星期	-5243
GET	-5244
▁Build	-5245
▁improve	-5246
▁external	-5247
▁necessary	-5248
出门	-5249
自动	-5250
▁Pr	-5251
olve	-5252
▁obj	-5253
▁clean	-5254
▁memory	-5255
resource	-5256
sa	-5257
式的	-5258
舰队	-5259
:30	-5260
的地方	-5261
home	-5262
07	-5263
▁公	-5264
效果	-5265
药物	-5266
是中国	-5267
ilit	-5268
▁der	-5269
今天天气	-5270
green	-5271
▁More	-5272
▁wide	-5273
Access	-5274
▁frequ	-5275
今天天气怎么样	-5276
加法	-5277
结婚	-5278
▁"<	-5279
▁ann	-5280
▁Most	-5281
▁sort	-5282
ataset	-5283
network	-5284
▁cancer	-5285
▁ground	-5286
▁surface	-5287
压器	-5288
skin	-5289
▁Nov	-5290
aries	-5291
▁paper	-5292
只是	-5293
各地	-5294
尼斯	-5295
英雄	-5296
食品	-5297
[0].	-5298
▁pos	-5299
scroll	-5300
▁associated	-5301
▁scientists	-5302
女性	-5303
简介	-5304
编码	-5305
itive	-5306
▁taken	-5307
▁months	-5308
▁nature	-5309
Parameter	-5310
Parameters	-5311
▁parameters	-5312
cr	-5313
大赛	-5314
集中	-5315
▁big	-5316
quote	-5317
ensions	-5318
▁addition	-5319
▁此	-5320
▁23	-5321
被认为	-5322
ality	-5323
▁domain	-5324
framework	-5325
一家	-5326
出任	-5327
Menu	-5328
stop	-5329
▁multiple	-5330
▁东	-5331
奖项	-5332
fit	-5333
▁28	-5334
▁sw	-5335
了一个	-5336
lice	-5337
Holder	-5338
、“	-5339
outer	-5340
mental	-5341
▁Returns	-5342
▁studies	-5343
▁actually	-5344
``	-5345
hr	-5346
不少	-5347
教区	-5348
mem	-5349
▁Cent	-5350
buffer	-5351
export	-5352
▁products	-5353
▁Washington	-5354
日至	-5355
正在	-5356
dim	-5357
jav	-5358
第二步	-5359
draw	-5360
panel	-5361
▁avoid	-5362
Decimal	-5363
▁offset	-5364
Function	-5365
常见	-5366
开展	-5367
总部	-5368
注册	-5369
▁buffer	-5370
县人	-5371
蛋白	-5372
▁70	-5373
▁ur	-5374
▁上海	-5375
▁先计算	-5376
Queue	-5377
▁plat	-5378
▁先计算加法	-5379
istration	-5380
多次	-5381
大会	-5382
教会	-5383
文件	-5384
"""	-5385
rates	-5386
ography	-5387
spective	-5388
▁behavior	-5389
」、	-5390
协助	-5391
aly	-5392
▁simp	-5393
Update	-5394
edback	-5395
single	-5396
生命	-5397
---	-5398
▁yet	-5399
black	-5400
▁根据搜索结果	-5401
volution	-5402
DL	-5403
网站	-5404
证明	-5405
tore	-5406
▁1.5	-5407
▁查一下	-5408
▁five	-5409
▁deprecated	-5410
sourceLineNo	-5411
加盟	-5412
曾在	-5413
都有	-5414
非洲	-5415
Pos	-5416
▁其他	-5417
"));	-5418
1997	-5419
just	-5420
▁Lat	-5421
▁第一步	-5422
▁mind	-5423
▁linear	-5424
▁recomm	-5425
toString	-5426
FT	-5427
ln	-5428
卫生	-5429
资产	-5430
'},	-5431
(0.	-5432
illa	-5433
stone	-5434
7;	-5435
爆发	-5436
返回	-5437
ano	-5438
Stack	-5439
icons	-5440
ropri	-5441
▁2006	-5442
▁idea	-5443
▁house	-5444
▁Instit	-5445
▁原	-5446
红色	-5447
1000	-5448
▁Web	-5449
▁pref	-5450
▁occur	-5451
template	-5452
:4	-5453
;-	-5454
力的	-5455
市的	-5456
拒绝	-5457
按照	-5458
第六	-5459
RNA	-5460
×2=	-5461
ails	-5462
task	-5463
▁uses	-5464
curity	-5465
liance	-5466
▁whole	-5467
▁engine	-5468
Callback	-5469
姆斯	-5470
用户	-5471
米尔	-5472
▁stre	-5473
▁quick	-5474
▁entire	-5475
QL	-5476
ZE	-5477
▁年	-5478
展开	-5479
气候	-5480
装饰	-5481
Parent	-5482
周边	-5483
有时	-5484
出版社	-5485
:100	-5486
▁ess	-5487
▁camp	-5488
Ab	-5489
EC	-5490
uly	-5491
term	-5492
ining	-5493
▁almost	-5494
▁building	-5495
▁elements	-5496
▁considered	-5497
从而	-5498
取代	-5499
名单	-5500
巴西	-5501
意义	-5502
荷兰	-5503
的研究	-5504
▁nuc	-5505
▁fund	-5506
jessem	-5507
▁cache	-5508
▁climate	-5509
▁princip	-5510
jessemull	-5511
microflex	-5512
na	-5513
体系	-5514
广告	-5515
是指	-5516
观察	-5517
了一下	-5518
1990	-5519
irit	-5520
▁Log	-5521
▁six	-5522
Nodes	-5523
dated	-5524
▁2021	-5525
▁modern	-5526
($	-5527
安排	-5528
here	-5529
▁Many	-5530
▁brain	-5531
Version	-5532
提名	-5533
sql	-5534
allen	-5535
fficient	-5536
9.	-5537
参赛	-5538
日起	-5539
600	-5540
emb	-5541
env	-5542
▁pers	-5543
▁member	-5544
▁correct	-5545
分子	-5546
到达	-5547
只能	-5548
方案	-5549
▁香港	-5550
亿美元	-5551
出门吗	-5552
变压器	-5553
▁emb	-5554
▁err	-5555
cover	-5556
适合出门吗	-5557
▁School	-5558
一定	-5559
八年	-5560
因素	-5561
大楼	-5562
遗址	-5563
骑士	-5564
Str	-5565
msg	-5566
▁mw	-5567
▁fri	-5568
ensed	-5569
▁tree	-5570
selves	-5571
sizing	-5572
ka	-5573
化的	-5574
江苏	-5575
河北	-5576
生的	-5577
wpf	-5578
oice	-5579
tree	-5580
break	-5581
▁article	-5582
(7	-5583
2-	-5584
\"	-5585
以后	-5586
面的	-5587
-->	-5588
docs	-5589
▁Pre	-5590
▁UTC	-5591
▁Center	-5592
▁living	-5593
▁provides	-5594
150	-5595
rea	-5596
erts	-5597
cline	-5598
▁situ	-5599
的发展历程	-5600
▁South	-5601
▁hours	-5602
ascript	-5603
▁issues	-5604
▁namespace	-5605
▁additional	-5606
▁researchers	-5607
▁上	-5608
消费	-5609
积极	-5610
考虑	-5611
1';	-5612
Open	-5613
sort	-5614
深度学习	-5615
▁hold	-5616
▁请帮我查一下	-5617
▁members	-5618
▁student	-5619
深度学习的发展历程	-5620
▁structure	-5621
▁请帮我查一下深度学习的发展历程	-5622
唱片	-5623
ado	-5624
▁city	-5625
移动	-5626
LIC	-5627
sis	-5628
umer	-5629
tocol	-5630
frames	-5631
▁makes	-5632
2;	-5633
3/	-5634
大厦	-5635
boot	-5636
Types	-5637
▁phot	-5638
▁began	-5639
Address	-5640
UI	-5641
▁陈	-5642
哈尔	-5643
患者	-5644
▁我搜索	-5645
得到的结	-5646
▁2004	-5647
inline	-5648
得到的结论是	-5649
▁我搜索了一下	-5650
得到的结论是搜索结果	-5651
基于	-5652
遭到	-5653
的工作	-5654
copy	-5655
keys	-5656
Server	-5657
▁cells	-5658
▁react	-5659
▁terms	-5660
▁Indian	-5661
cry	-5662
ife	-5663
▁21	-5664
abit	-5665
▁#00	-5666
Return	-5667
upload	-5668
3)	-5669
utf	-5670
▁由于	-5671
aste	-5672
▁cut	-5673
▁graph	-5674
▁passed	-5675
九年	-5676
宗教	-5677
特色	-5678
▁sea	-5679
的一部分	-5680
roller	-5681
▁appear	-5682
stylesheet	-5683
▁ArrayList	-5684
(/	-5685
yl	-5686
国的	-5687
瓦尔	-5688
:20	-5689
Min	-5690
▁26	-5691
based	-5692
▁hash	-5693
pected	-5694
▁tests	-5695
▁complete	-5696
概念	-5697
现场	-5698
路线	-5699
por	-5700
ming	-5701
▁High	-5702
▁respons	-5703
军的	-5704
威尔	-5705
尤其	-5706
构成	-5707
核心	-5708
生态	-5709
透过	-5710
金属	-5711
▁ax	-5712
otion	-5713
▁bold	-5714
Filter	-5715
▁forms	-5716
▁heart	-5717
details	-5718
创造	-5719
投入	-5720
vey	-5721
改制为	-5722
tain	-5723
about	-5724
scope	-5725
▁wait	-5726
▁ways	-5727
▁Science	-5728
▁numbers	-5729
▁operation	-5730
看到	-5731
Oper	-5732
Empty	-5733
aging	-5734
▁circ	-5735
▁half	-5736
▁focus	-5737
▁obtain	-5738
▁selected	-5739
aa	-5740
十年	-5741
球季	-5742
破坏	-5743
adge	-5744
cret	-5745
▁byte	-5746
slider	-5747
cription	-5748
0"	-5749
4。	-5750
公主	-5751
osp	-5752
ivil	-5753
chain	-5754
grams	-5755
handle	-5756
models	-5757
▁Calcul	-5758
▁express	-5759
▁animation	-5760
(`	-5761
中部	-5762
半岛	-5763
威廉	-5764
截至	-5765
英文	-5766
▁.5	-5767
▁mi	-5768
oura	-5769
▁nor	-5770
▁saf	-5771
attle	-5772
tection	-5773
▁stream	-5774
Component	-5775
IM	-5776
宣传	-5777
未能	-5778
高级	-5779
rip	-5780
▁Earth	-5781
▁primary	-5782
▁science	-5783
▁temperature	-5784
出口	-5785
名的	-5786
意识	-5787
病毒	-5788
:0;	-5789
Com	-5790
mes	-5791
天主教	-5792
rown	-5793
▁"10	-5794
▁ste	-5795
马来西亚	-5796
▁2026.	-5797
▁Count	-5798
▁defined	-5799
▁respect	-5800
加上	-5801
大家	-5802
效力	-5803
Task	-5804
lands	-5805
▁contribut	-5806
太子	-5807
思想	-5808
温度	-5809
队的	-5810
陕西	-5811
hib	-5812
amin	-5813
sequ	-5814
▁wor	-5815
verage	-5816
spacing	-5817
▁symptoms	-5818
bb	-5819
刺史	-5820
当中	-5821
统一	-5822
Down	-5823
▁arr	-5824
▁Date	-5825
events	-5826
ised	-5827
sess	-5828
Level	-5829
▁virt	-5830
Target	-5831
▁shown	-5832
乔治	-5833
竞争	-5834
▁Art	-5835
▁doc	-5836
osoph	-5837
并入	-5838
vol	-5839
ille	-5840
save	-5841
▁Pol	-5842
▁tell	-5843
▁搜索一下	-5844
▁sense	-5845
assertEqual	-5846
▁performance	-5847
DC	-5848
▁•	-5849
他是	-5850
开通	-5851
控股	-5852
月台	-5853
萨克	-5854
bot	-5855
des	-5856
atar	-5857
mult	-5858
▁></	-5859
▁save	-5860
▁帮我搜索一下	-5861
神经网络的历史	-5862
▁帮我搜索一下神经网络的历史	-5863
▁多	-5864
万人	-5865
传说	-5866
占领	-5867
▁She	-5868
▁relationship	-5869
容易	-5870
▁4.	-5871
▁fem	-5872
▁King	-5873
▁Prop	-5874
▁extra	-5875
ificate	-5876
有些	-5877
重建	-5878
Vis	-5879
Tree	-5880
▁ice	-5881
▁took	-5882
▁connect	-5883
御史	-5884
="_	-5885
fort	-5886
pril	-5887
oline	-5888
▁pressure	-5889
pc	-5890
斯基	-5891
湖南	-5892
Web	-5893
YES	-5894
▁conduct	-5895
ula	-5896
并没有	-5897
chie	-5898
else	-5899
empty	-5900
▁draw	-5901
ternet	-5902
utions	-5903
contact	-5904
▁caused	-5905
Collection	-5906
▁perspective	-5907
不仅	-5908
欢迎	-5909
限制	-5910
ria	-5911
hwpf	-5912
rant	-5913
▁Dav	-5914
params	-5915
Command	-5916
▁letter	-5917
▁mechan	-5918
▁parameter	-5919
CK	-5920
收购	-5921
症状	-5922
视为	-5923
高的	-5924
SER	-5925
gin	-5926
▁Mat	-5927
▁Soc	-5928
rought	-5929
▁gives	-5930
▁圣	-5931
线的	-5932
▁4,	-5933
▁br	-5934
▁>>>	-5935
0,000	-5936
ITION	-5937
icate	-5938
social	-5939
▁Other	-5940
boolean	-5941
KE	-5942
丹麦	-5943
元素	-5944
客户	-5945
__.	-5946
hip	-5947
ott	-5948
▁job	-5949
System	-5950
▁layer	-5951
▁offer	-5952
istance	-5953
▁German	-5954
▁recent	-5955
▁Department	-5956
南方	-5957
报道	-5958
'))	-5959
1);	-5960
Dir	-5961
gif	-5962
▁车站	-5963
办公室	-5964
Work	-5965
▁factors	-5966
▁setting	-5967
▁describe	-5968
▁increased	-5969
1_	-5970
保险	-5971
停止	-5972
大臣	-5973
打击	-5974
iqu	-5975
▁tw	-5976
mine	-5977
variable	-5978
战后	-5979
战略	-5980
海岸	-5981
球场	-5982
遗产	-5983
>();	-5984
limit	-5985
▁medic	-5986
[2	-5987
十六	-5988
夺得	-5989
▁mag	-5990
▁cloud	-5991
▁fixed	-5992
▁store	-5993
▁proper	-5994
▁isinstance	-5995
人士	-5996
尚书	-5997
Icon	-5998
▁fav	-5999
ranch	-6000
romise	-6001
▁British	-6002
▁returned	-6003
为一	-6004
工厂	-6005
aur	-6006
itch	-6007
▁effective	-6008
-7	-6009
/>	-6010
入选	-6011
夏季	-6012
推进	-6013
的原	-6014
里的	-6015
ORS	-6016
▁nut	-6017
世界大战	-6018
ordin	-6019
▁Part	-6020
▁Speci	-6021
▁rules	-6022
▁params	-6023
▁progress	-6024
doubleflex	-6025
▁production	-6026
关注	-6027
司马	-6028
当选	-6029
旅客	-6030
武器	-6031
ById	-6032
▁fall	-6033
▁fish	-6034
should	-6035
results	-6036
▁experience	-6037
BN	-6038
PA	-6039
入口	-6040
改造	-6041
用的	-6042
超级	-6043
dro	-6044
erg	-6045
lir	-6046
▁第二	-6047
可能是	-6048
▁exec	-6049
▁rock	-6050
utable	-6051
▁email	-6052
▁models	-6053
化石	-6054
失去	-6055
如此	-6056
联系	-6057
部份	-6058
高度	-6059
ACT	-6060
ORD	-6061
大多数	-6062
Read	-6063
ials	-6064
▁File	-6065
▁estim	-6066
▁chemical	-6067
拉夫	-6068
IND	-6069
buf	-6070
Role	-6071
itions	-6072
▁parse	-6073
▁attemp	-6074
Location	-6075
▁predict	-6076
▁刘	-6077
尔的	-6078
机关	-6079
解释	-6080
haps	-6081
▁doesn	-6082
▁explo	-6083
println	-6084
▁introdu	-6085
};	-6086
▁黄	-6087
彼得	-6088
才能	-6089
rim	-6090
▁Sy	-6091
only	-6092
▁employ	-6093
▁architect	-6094
=0	-6095
事故	-6096
州的	-6097
贡献	-6098
IGN	-6099
ULT	-6100
arb	-6101
时间为	-6102
uman	-6103
▁'';	-6104
▁Ant	-6105
unity	-6106
▁Tokyo	-6107
▁Public	-6108
▁animals	-6109
javascript	-6110
行星	-6111
ENT	-6112
ONT	-6113
Title	-6114
Before	-6115
Format	-6116
▁channel	-6117
▁parents	-6118
▁这	-6119
现象	-6120
编剧	-6121
路口	-6122
▁Bi	-6123
▁"";	-6124
▁Min	-6125
fonts	-6126
govuk	-6127
▁fill	-6128
▁rule	-6129
selected	-6130
▁economic	-6131
检查	-6132
测试	-6133
混合	-6134
疫情	-6135
长约	-6136
▁90	-6137
公司的	-6138
第一个	-6139
logo	-6140
▁msg	-6141
▁poll	-6142
▁delete	-6143
区为	-6144
inger	-6145
▁card	-6146
▁Journal	-6147
keyframes	-6148
▁Calculate	-6149
会的	-6150
接壤	-6151
AME	-6152
apy	-6153
related	-6154
▁testing	-6155
▁Reference	-6156
▁properties	-6157
TV	-6158
延伸	-6159
省份	-6160
(14	-6161
idu	-6162
1996	-6163
>0</	-6164
atic	-6165
serve	-6166
useum	-6167
layout	-6168
Session	-6169
article	-6170
feature	-6171
▁analysis	-6172
4;	-6173
丰富	-6174
先生	-6175
全面	-6176
南北	-6177
此后	-6178
news	-6179
▁0.2	-6180
▁oil	-6181
▁2003	-6182
▁Aust	-6183
▁Ever	-6184
▁Math	-6185
▁probably	-6186
因而	-6187
更加	-6188
特里	-6189
(1,	-6190
的重要	-6191
mlir	-6192
▁opp	-6193
Store	-6194
▁Apache	-6195
乾隆	-6196
生长	-6197
用来	-6198
而成	-6199
更名为	-6200
▁conv	-6201
Option	-6202
▁Press	-6203
▁exception	-6204
1>	-6205
:3	-6206
乐团	-6207
创立	-6208
嘉靖	-6209
-16	-6210
aint	-6211
▁auth	-6212
▁info	-6213
▁admin	-6214
▁written	-6215
士兵	-6216
施工	-6217
来到	-6218
正常	-6219
瑞典	-6220
2022	-6221
rict	-6222
▁pict	-6223
/.	-6224
WS	-6225
▁下	-6226
校长	-6227
运河	-6228
-34	-6229
Api	-6230
▁Di	-6231
▁tab	-6232
quare	-6233
▁March	-6234
▁force	-6235
handler	-6236
Provider	-6237
取消	-6238
-15	-6239
2021	-6240
berg	-6241
▁1999	-6242
▁talk	-6243
irectory	-6244
▁translateX	-6245
ev	-6246
压力	-6247
市区	-6248
旗下	-6249
邀请	-6250
Obj	-6251
zer	-6252
”、“	-6253
▁ID	-6254
conf	-6255
talk	-6256
▁2.0	-6257
▁emer	-6258
▁story	-6259
▁details	-6260
此时	-6261
清朝	-6262
邮政	-6263
▁tax	-6264
ategy	-6265
▁fields	-6266
▁national	-6267
za	-6268
日军	-6269
lab	-6270
▁地理	-6271
known	-6272
strap	-6273
▁Time	-6274
▁core	-6275
▁achie	-6276
IE	-6277
▁参	-6278
一同	-6279
经验	-6280
走向	-6281
etic	-6282
final	-6283
match	-6284
insert	-6285
佛教	-6286
作词	-6287
空军	-6288
风险	-6289
ads	-6290
dot	-6291
实验室	-6292
icks	-6293
▁Rec	-6294
lighten	-6295
▁included	-6296
<?	-6297
▁从	-6298
兴建	-6299
总督	-6300
目的	-6301
程序	-6302
花园	-6303
▁AL	-6304
▁imm	-6305
▁led	-6306
oding	-6307
store	-6308
▁pred	-6309
▁thus	-6310
小组	-6311
胜利	-6312
越南	-6313
aws	-6314
ifi	-6315
▁#2	-6316
Sign	-6317
high	-6318
文物保护	-6319
▁surv	-6320
entials	-6321
icensed	-6322
▁switch	-6323
▁Version	-6324
▁一	-6325
会长	-6326
而是	-6327
,18	-6328
800	-6329
iat	-6330
nap	-6331
TABLE	-6332
▁atom	-6333
▁longer	-6334
▁声	-6335
临时	-6336
其实	-6337
白色	-6338
最后一	-6339
uous	-6340
▁exam	-6341
▁bytes	-6342
▁sources	-6343
▁described	-6344
FI	-6345
▁‘	-6346
机器	-6347
老师	-6348
资金	-6349
的第一	-6350
▁THE	-6351
hemat	-6352
headers	-6353
▁materials	-6354
登场	-6355
直至	-6356
警察	-6357
魔法	-6358
_"]:	-6359
▁relig	-6360
RL	-6361
官员	-6362
模型	-6363
省级	-6364
ara	-6365
help	-6366
▁hor	-6367
angle	-6368
faces	-6369
▁west	-6370
▁India	-6371
▁props	-6372
NotNull	-6373
▁Although	-6374
▁individuals	-6375
下降	-6376
前的	-6377
批准	-6378
边界	-6379
cdn	-6380
els	-6381
▁My	-6382
Sche	-6383
tools	-6384
▁prep	-6385
▁particip	-6386
▁undefined	-6387
之子	-6388
人在	-6389
伊斯	-6390
海洋	-6391
美术	-6392
uit	-6393
ceed	-6394
(255,	-6395
Device	-6396
ositive	-6397
▁arguments	-6398
(6	-6399
(9	-6400
.2	-6401
保留	-6402
学术	-6403
曾任	-6404
那么	-6405
▁'''	-6406
using	-6407
transp	-6408
▁April	-6409
▁Union	-6410
address	-6411
▁agreed	-6412
icrosoft	-6413
horizontal	-6414
客运	-6415
执导	-6416
有机	-6417
的首	-6418
cap	-6419
cil	-6420
Http	-6421
site	-6422
▁sla	-6423
▁regular	-6424
BU	-6425
vm	-6426
摄影	-6427
满足	-6428
Max	-6429
rome	-6430
▁bal	-6431
andid	-6432
▁names	-6433
▁shows	-6434
overflow	-6435
▁interface	-6436
springframework	-6437
hi	-6438
加强	-6439
失败	-6440
心理	-6441
数字	-6442
颁奖	-6443
oly	-6444
▁制作	-6445
▁Mod	-6446
▁den	-6447
人民政府	-6448
baidu	-6449
]:	-6450
启用	-6451
外的	-6452
皇后	-6453
降低	-6454
)),	-6455
isp	-6456
成为了	-6457
▁fla	-6458
▁cross	-6459
ulations	-6460
▁England	-6461
▁History	-6462
▁exports	-6463
升级	-6464
江西	-6465
电力	-6466
考试	-6467
使用的	-6468
Long	-6469
mask	-6470
osen	-6471
rate	-6472
email	-6473
Helper	-6474
▁online	-6475
▁review	-6476
▁features	-6477
争议	-6478
克莱	-6479
公元	-6480
列为	-6481
夫人	-6482
接近	-6483
火箭	-6484
队伍	-6485
ECT	-6486
amb	-6487
ike	-6488
▁主要	-6489
编码为	-6490
著名的	-6491
aily	-6492
▁ANY	-6493
▁har	-6494
▁drug	-6495
▁json	-6496
▁sens	-6497
▁Please	-6498
▁random	-6499
TableRow	-6500
▁existing	-6501
▁successful	-6502
▁。	-6503
160	-6504
req	-6505
ichlet	-6506
▁built	-6507
▁items	-6508
▁Create	-6509
▁Message	-6510
agination	-6511
▁亚	-6512
给予	-6513
随著	-6514
▁Up	-6515
▁jo	-6516
」、「	-6517
capt	-6518
▁phil	-6519
▁birds	-6520
▁personal	-6521
中有	-6522
展示	-6523
能源	-6524
购买	-6525
roy	-6526
(1);	-6527
rote	-6528
cific	-6529
lines	-6530
swing	-6531
▁City	-6532
▁answer	-6533
▁Socrates	-6534
▁activities	-6535
出身	-6536
操作	-6537
▁ce	-6538
ened	-6539
hold	-6540
tion	-6541
debug	-6542
riter	-6543
▁relat	-6544
▁histor	-6545
register	-6546
▁appropri	-6547
地利	-6548
年来	-6549
或是	-6550
▁sm	-6551
Impl	-6552
▁compan	-6553
Configuration	-6554
TableRowColor	-6555
pg	-6556
中间	-6557
仪式	-6558
coming	-6559
▁lines	-6560
▁International	-6561
▁长	-6562
出演	-6563
台南	-6564
大致	-6565
的外	-6566
职棒	-6567
试图	-6568
Iss	-6569
PUT	-6570
世界杯	-6571
ases	-6572
ture	-6573
▁Tra	-6574
enced	-6575
ffffff	-6576
issing	-6577
ourage	-6578
▁torch	-6579
ovation	-6580
▁doctor	-6581
▁Society	-6582
▁themselves	-6583
)}	-6584
;/	-6585
入侵	-6586
创办	-6587
四个	-6588
装置	-6589
覆盖	-6590
clo	-6591
苏格兰	-6592
what	-6593
▁etc	-6594
names	-6595
:100%;	-6596
▁Institute	-6597
▁于	-6598
基因	-6599
总理	-6600
感染	-6601
ube	-6602
比赛中	-6603
▁wild	-6604
▁Error	-6605
modules	-6606
PT	-6607
医生	-6608
▁45	-6609
()</	-6610
FONT	-6611
▁Oct	-6612
▁From	-6613
▁attack	-6614
abilities	-6615
▁programs	-6616
Repository	-6617
PR	-6618
cut	-6619
oss	-6620
时间是	-6621
有一个	-6622
bsite	-6623
▁doing	-6624
MM	-6625
劳动	-6626
海拔	-6627
研发	-6628
▁sat	-6629
▁parts	-6630
warning	-6631
▁General	-6632
▁approach	-6633
▁internal	-6634
下来	-6635
出来	-6636
动作	-6637
整体	-6638
更多	-6639
至少	-6640
ENSE	-6641
Pass	-6642
▁Emp	-6643
Click	-6644
▁util	-6645
▁visit	-6646
▁allowed	-6647
▁produce	-6648
▁storage	-6649
Connection	-6650
DI	-6651
处于	-6652
▁北京	-6653
▁Mex	-6654
▁Red	-6655
VALUE	-6656
orary	-6657
verter	-6658
▁sleep	-6659
▁outside	-6660
PU	-6661
万历	-6662
中山	-6663
促进	-6664
员工	-6665
和其他	-6666
在美国	-6667
▁WIT	-6668
▁mach	-6669
▁Group	-6670
connect	-6671
▁option	-6672
▁13:57:00	-6673
不再	-6674
地位	-6675
武汉	-6676
河流	-6677
那里	-6678
黑色	-6679
120	-6680
▁Vir	-6681
mitted	-6682
screen	-6683
Integer	-6684
segment	-6685
▁Assert	-6686
▁directly	-6687
剧场	-6688
厘米	-6689
对象	-6690
接触	-6691
▁Of	-6692
州刺史	-6693
▁Work	-6694
▁heav	-6695
▁thing	-6696
defaultChannel	-6697
.3	-6698
同意	-6699
得以	-6700
节度	-6701
▁HT	-6702
的人口	-6703
科学院	-6704
()).	-6705
void	-6706
▁track	-6707
▁assign	-6708
▁safety	-6709
mg	-6710
再度	-6711
安徽	-6712
意思	-6713
波兰	-6714
特的	-6715
票房	-6716
说法	-6717
▁Cl	-6718
年开始	-6719
现在是	-6720
ATION	-6721
文物保护单位	-6722
▁classes	-6723
▁running	-6724
AV	-6725
同一	-6726
数学	-6727
面对	-6728
▁日本	-6729
可前往	-6730
▁$("	-6731
▁Temp	-6732
ulated	-6733
▁books	-6734
▁ideas	-6735
collapse	-6736
▁includes	-6737
几点	-6738
多种	-6739
太郎	-6740
形态	-6741
▁1:	-6742
100%	-6743
Pref	-6744
▁Mon	-6745
▁calc	-6746
▁mass	-6747
▁note	-6748
ynamic	-6749
▁sample	-6750
▁outline	-6751
▁although	-6752
▁designed	-6753
&#	-6754
Is	-6755
创建	-6756
寻找	-6757
将会	-6758
比例	-6759
状况	-6760
通车	-6761
Aut	-6762
hide	-6763
lyph	-6764
▁basic	-6765
example	-6766
▁travel	-6767
▁reading	-6768
▁attention	-6769
Co	-6770
fn	-6771
站台	-6772
="">	-6773
Hash	-6774
icip	-6775
▁sometimes	-6776
▁increasing	-6777
IP	-6778
事实	-6779
授予	-6780
维持	-6781
conv	-6782
rupt	-6783
▁Ham	-6784
ARRAN	-6785
illed	-6786
▁WARRAN	-6787
▁nation	-6788
优势	-6789
供应	-6790
聚落	-6791
Acc	-6792
▁<=	-6793
国家队	-6794
Unit	-6795
▁bre	-6796
▁tur	-6797
ulate	-6798
▁HTML	-6799
▁born	-6800
editor	-6801
▁demon	-6802
▁wrote	-6803
.4	-6804
Fn	-6805
出战	-6806
原子	-6807
旅行	-6808
最近	-6809
湖北	-6810
避免	-6811
▁io	-6812
奥地利	-6813
('./	-6814
chor	-6815
▁dra	-6816
Names	-6817
▁cred	-6818
access	-6819
▁micro	-6820
▁company	-6821
▁nuclear	-6822
DS	-6823
人才	-6824
和平	-6825
某些	-6826
维拉	-6827
翻译	-6828
防御	-6829
lam	-6830
▁mount	-6831
▁regard	-6832
3"	-6833
3-	-6834
允许	-6835
十五	-6836
命令	-6837
引发	-6838
我的	-6839
cons	-6840
plan	-6841
spec	-6842
▁mor	-6843
summary	-6844
Position	-6845
▁concept	-6846
▁produced	-6847
亨利	-6848
土耳	-6849
女儿	-6850
批评	-6851
校区	-6852
kind	-6853
password	-6854
▁feature	-6855
▁society	-6856
▁functions	-6857
其它	-6858
完整	-6859
ESS	-6860
▁Hel	-6861
社会主义	-6862
▁Rock	-6863
▁Your	-6864
▁soon	-6865
ressed	-6866
▁front	-6867
support	-6868
▁taking	-6869
▁library	-6870
NS	-6871
不足	-6872
培养	-6873
神社	-6874
简单	-6875
(13	-6876
运动会	-6877
hash	-6878
osed	-6879
woff	-6880
▁Har	-6881
▁ten	-6882
leted	-6883
Thread	-6884
iation	-6885
ussion	-6886
▁colon	-6887
▁market	-6888
▁suffer	-6889
真正	-6890
隧道	-6891
oon	-6892
xim	-6893
zon	-6894
▁这个	-6895
土耳其	-6896
是一名	-6897
orge	-6898
柴油机车	-6899
orter	-6900
pping	-6901
▁Type	-6902
▁room	-6903
▁等于多少	-6904
▁帮我算一下	-6905
▁unique	-6906
▁applicable	-6907
带领	-6908
管辖	-6909
退役	-6910
▁Op	-6911
iler	-6912
Match	-6913
ensive	-6914
▁allows	-6915
▁ensure	-6916
▁points	-6917
▁series	-6918
▁throughout	-6919
CA	-6920
也在	-6921
又名	-6922
有人	-6923
▁vi	-6924
毕业于	-6925
FFFF	-6926
▁aff	-6927
iders	-6928
allery	-6929
lation	-6930
ometry	-6931
:'	-6932
之战	-6933
也不	-6934
天文	-6935
小的	-6936
放弃	-6937
昭和	-6938
ANG	-6939
▁{{	-6940
life	-6941
timer	-6942
▁Char	-6943
▁Mich	-6944
▁seems	-6945
▁immedi	-6946
▁strict	-6947
▁currently	-6948
.1	-6949
一带	-6950
性能	-6951
方的	-6952
知名	-6953
针对	-6954
fin	-6955
阿拉伯	-6956
Post	-6957
airs	-6958
inct	-6959
▁500	-6960
▁burn	-6961
▁dict	-6962
▁prior	-6963
Template	-6964
▁therefore	-6965
▁曾	-6966
▁0:	-6967
行政区划	-6968
ights	-6969
▁respond	-6970
▁oSelection	-6971
DF	-6972
dc	-6973
之下	-6974
广西	-6975
财政	-6976
配合	-6977
AGE	-6978
▁"8	-6979
和时间	-6980
Serv	-6981
▁sal	-6982
thumb	-6983
▁Govern	-6984
▁consist	-6985
si	-6986
两种	-6987
国立	-6988
大桥	-6989
日的	-6990
特点	-6991
第七	-6992
试验	-6993
里斯	-6994
cos	-6995
Qual	-6996
的天气是	-6997
▁face	-6998
Create	-6999
今天的天气是	-7000
classes	-7001
发售	-7002
就读	-7003
岩石	-7004
的方式	-7005
▁ago	-7006
▁sil	-7007
高速公路	-7008
是什么日子	-7009
random	-7010
▁decre	-7011
command	-7012
▁difference	-7013
▁understanding	-7014
国会	-7015
符合	-7016
▁slow	-7017
middle	-7018
undred	-7019
▁political	-7020
:-	-7021
Ne	-7022
WY	-7023
ea	-7024
培训	-7025
1">	-7026
API	-7027
▁33	-7028
也可以	-7029
几点了	-7030
的故事	-7031
▁现在几点了	-7032
▁growth	-7033
▁今天是什么日子	-7034
▁demonstr	-7035
2/	-7036
作者	-7037
少女	-7038
杀死	-7039
规则	-7040
cat	-7041
ino	-7042
成立于	-7043
是一位	-7044
1994	-7045
rench	-7046
▁2002	-7047
Wrapper	-7048
国防	-7049
自行	-7050
(12	-7051
ACK	-7052
(-50	-7053
▁Out	-7054
Tokyo	-7055
encies	-7056
▁identify	-7057
▁independ	-7058
▁limitations	-7059
先进	-7060
成本	-7061
热带	-7062
首先	-7063
ras	-7064
历史上	-7065
▁Edu	-7066
ening	-7067
▁poor	-7068
render	-7069
webpack	-7070
一度	-7071
父母	-7072
ITY	-7073
▁27	-7074
1995	-7075
func	-7076
▁saw	-7077
▁sou	-7078
▁River	-7079
▁autom	-7080
▁scope	-7081
▁takes	-7082
▁altern	-7083
▁thread	-7084
▁believe	-7085
▁→	-7086
千米	-7087
坚持	-7088
▁${	-7089
▁演员	-7090
算一下	-7091
▁hyp	-7092
ITORS	-7093
▁tool	-7094
▁town	-7095
▁现在北京	-7096
时间是多少	-7097
ecutor	-7098
▁issue	-7099
Variable	-7100
▁Windows	-7101
▁implied	-7102
▁supported	-7103
▁现在北京时间是多少	-7104
8;	-7105
努力	-7106
布鲁	-7107
指定	-7108
期的	-7109
Div	-7110
irth	-7111
▁Dir	-7112
ables	-7113
cular	-7114
▁warm	-7115
▁请帮我算一下	-7116
BE	-7117
pu	-7118
}.	-7119
消息	-7120
ama	-7121
ccc	-7122
▁NY	-7123
▁spre	-7124
▁digital	-7125
El	-7126
三角	-7127
占地	-7128
有所	-7129
编号	-7130
迅速	-7131
ERR	-7132
het	-7133
解放军	-7134
SMAR	-7135
▁api	-7136
▁bul	-7137
anese	-7138
cious	-7139
▁Also	-7140
ership	-7141
origin	-7142
exports	-7143
上市	-7144
全线	-7145
吸引	-7146
在这	-7147
PRO	-7148
cho	-7149
dev	-7150
▁net	-7151
react	-7152
sq	-7153
举人	-7154
地的	-7155
并非	-7156
而被	-7157
附属	-7158
告诉我	-7159
▁lot	-7160
aught	-7161
▁Pres	-7162
lastic	-7163
▁evalu	-7164
▁simply	-7165
▁himself	-7166
▁patients	-7167
▁他	-7168
共产	-7169
首都	-7170
▁IE	-7171
▁ep	-7172
▁Rem	-7173
Write	-7174
ibrary	-7175
▁Roman	-7176
▁units	-7177
ITORSUS	-7178
Package	-7179
▁policy	-7180
▁received	-7181
TEDITORSUS	-7182
UM	-7183
亚军	-7184
地点	-7185
戏剧	-7186
改善	-7187
相比	-7188
突然	-7189
青岛	-7190
-11	-7191
ERS	-7192
ICE	-7193
ker	-7194
日期为	-7195
Panel	-7196
asons	-7197
lined	-7198
▁Value	-7199
▁apply	-7200
caption	-7201
▁removed	-7202
▁started	-7203
SMARTEDITORSUS	-7204
保存	-7205
如下	-7206
弗朗	-7207
cis	-7208
▁IO	-7209
Module	-7210
assign	-7211
▁exerci	-7212
▁practice	-7213
▁profession	-7214
澳洲	-7215
Ste	-7216
gle	-7217
▁Bro	-7218
▁abs	-7219
▁fix	-7220
ancer	-7221
▁Found	-7222
▁Associ	-7223
▁January	-7224
▁minutes	-7225
Di	-7226
cm	-7227
出售	-7228
十八	-7229
城镇	-7230
扩大	-7231
▁Ac	-7232
▁bind	-7233
linear	-7234
▁Latin	-7235
progress	-7236
▁business	-7237
1:	-7238
之中	-7239
十四	-7240
型的	-7241
山区	-7242
128	-7243
IVE	-7244
den	-7245
▁2)	-7246
▁pi	-7247
是日本	-7248
Back	-7249
▁URL	-7250
▁ctx	-7251
▁Arch	-7252
▁grad	-7253
loader	-7254
▁https	-7255
Activity	-7256
▁inherit	-7257
▁visible	-7258
保障	-7259
年底	-7260
意见	-7261
早年	-7262
柏林	-7263
相似	-7264
coh	-7265
vet	-7266
▁ir	-7267
▁当前	-7268
基督教	-7269
getS	-7270
unch	-7271
▁mis	-7272
查询结果	-7273
▁share	-7274
▁damage	-7275
▁challen	-7276
▁attribute	-7277
:"	-7278
[:	-7279
出场	-7280
大区	-7281
率领	-7282
长江	-7283
PRE	-7284
SIZE	-7285
sage	-7286
▁famil	-7287
▁money	-7288
▁applied	-7289
▁growing	-7290
▁healthy	-7291
DB	-7292
保罗	-7293
德拉	-7294
泰国	-7295
现时	-7296
长度	-7297
aby	-7298
eth	-7299
▁),	-7300
▁``	-7301
▁美国	-7302
节度使	-7303
Paris	-7304
alink	-7305
cache	-7306
▁heat	-7307
▁iter	-7308
payout	-7309
quired	-7310
▁China	-7311
▁Willi	-7312
▁bring	-7313
▁named	-7314
▁shape	-7315
▁whose	-7316
▁opport	-7317
▁根据查询结果	-7318
TA	-7319
学会	-7320
延长	-7321
表明	-7322
量的	-7323
颜色	-7324
.__	-7325
LIN	-7326
合并为	-7327
当时的	-7328
▁Bar	-7329
▁Jew	-7330
▁und	-7331
▁dark	-7332
▁safe	-7333
assets	-7334
components	-7335
hentication	-7336
ti	-7337
下辖	-7338
以前	-7339
*="	-7340
▁电影	-7341
出现在	-7342
TIES	-7343
goods	-7344
日期和时间	-7345
strict	-7346
股份有限公司	-7347
▁environmental	-7348
上阵	-7349
也会	-7350
典礼	-7351
文章	-7352
武帝	-7353
秘书	-7354
答案	-7355
bes	-7356
HOUT	-7357
etch	-7358
▁compar	-7359
▁release	-7360
▁replace	-7361
annotation	-7362
▁companies	-7363
专门	-7364
历山	-7365
外交	-7366
奥林	-7367
工艺	-7368
带来	-7369
电台	-7370
皮肤	-7371
1.0	-7372
gor	-7373
莫斯科	-7374
▁egg	-7375
▁veh	-7376
▁告诉我	-7377
ronic	-7378
▁Long	-7379
cember	-7380
▁告诉我现在的	-7381
▁generate	-7382
▁告诉我现在的日期和时间	-7383
▁transformers	-7384
▁白	-7385
人数	-7386
勋章	-7387
布拉	-7388
玛丽	-7389
航天	-7390
静虑	-7391
▁Mc	-7392
byte	-7393
▁Now	-7394
▁cop	-7395
labor	-7396
▁users	-7397
Current	-7398
▁instit	-7399
▁verify	-7400
ao	-7401
其余	-7402
讲述	-7403
ils	-7404
tsd	-7405
1986	-7406
three	-7407
▁June	-7408
▁deep	-7409
▁ther	-7410
ecause	-7411
▁During	-7412
▁scroll	-7413
具体	-7414
固定	-7415
很快	-7416
死后	-7417
水库	-7418
经理	-7419
('.	-7420
▁ri	-7421
是美国	-7422
hora	-7423
▁[];	-7424
▁rem	-7425
▁rgb	-7426
▁older	-7427
▁thous	-7428
Timeout	-7429
▁animal	-7430
licenses	-7431
▁林	-7432
。(	-7433
。“	-7434
剧本	-7435
安德	-7436
展览	-7437
装备	-7438
)">	-7439
Non	-7440
ael	-7441
rong	-7442
▁BAS	-7443
▁loc	-7444
Found	-7445
London	-7446
▁nodes	-7447
AM	-7448
SH	-7449
哲学	-7450
安装	-7451
本站	-7452
涉及	-7453
Spe	-7454
bin	-7455
(../	-7456
flat	-7457
▁Mus	-7458
DITION	-7459
▁quant	-7460
▁actual	-7461
usermodel	-7462
▁template	-7463
▁uppercase	-7464
▁自	-7465
一条	-7466
宁波	-7467
检测	-7468
电气	-7469
知县	-7470
马克	-7471
EMA	-7472
在中国	-7473
Init	-7474
TYPE	-7475
lant	-7476
mosp	-7477
▁San	-7478
reset	-7479
▁game	-7480
Reader	-7481
▁industry	-7482
▁determine	-7483
后者	-7484
大奖	-7485
年前	-7486
智能	-7487
相信	-7488
One	-7489
Sec	-7490
▁Am	-7491
本地区	-7492
ancy	-7493
olar	-7494
▁Rob	-7495
Focus	-7496
arger	-7497
▁Note	-7498
▁green	-7499
▁matter	-7500
▁skills	-7501
▁WITHOUT	-7502
▁ability	-7503
▁Dirichlet	-7504
%)	-7505
`.	-7506
vw	-7507
▁和	-7508
》《	-7509
岁的	-7510
手机	-7511
推动	-7512
等等	-7513
达成	-7514
)))	-7515
▁Tr	-7516
▁剧情	-7517
loor	-7518
▁fat	-7519
▁fit	-7520
Local	-7521
units	-7522
water	-7523
▁fast	-7524
comput	-7525
▁Japan	-7526
▁miRNA	-7527
▁images	-7528
▁leader	-7529
▁Software	-7530
▁involved	-7531
▁essential	-7532
▁particularly	-7533
////////////////	-7534
▁海	-7535
山脉	-7536
硕士	-7537
ira	-7538
Mark	-7539
▁July	-7540
▁deal	-7541
itable	-7542
▁meaning	-7543
Transform	-7544
▁generally	-7545
▁appropriate	-7546
▁permissions	-7547
▁概	-7548
引擎	-7549
电话	-7550
(__	-7551
ban	-7552
std	-7553
▁II	-7554
广东省	-7555
1992	-7556
aker	-7557
gray	-7558
ifest	-7559
undle	-7560
▁JSON	-7561
python	-7562
▁attributes	-7563
eb	-7564
tw	-7565
zy	-7566
国务	-7567
尔兰	-7568
殖民	-7569
STE	-7570
▁现在是	-7571
After	-7572
links	-7573
▁Post	-7574
Pointer	-7575
overlay	-7576
▁13:57。	-7577
▁nothing	-7578
="../../../	-7579
.6	-7580
rg	-7581
哥伦	-7582
当年	-7583
找到	-7584
拉克	-7585
0.0	-7586
Grid	-7587
asic	-7588
prev	-7589
▁Inc	-7590
itation	-7591
▁WARRANTIES	-7592
▁scientific	-7593
Go	-7594
也被	-7595
日治	-7596
较为	-7597
jpg	-7598
是位于	-7599
:57。	-7600
Area	-7601
reme	-7602
▁今天是	-7603
▁Link	-7604
▁TODO	-7605
13:57。	-7606
▁Based	-7607
▁Place	-7608
ference	-7609
▁website	-7610
navigation	-7611
卫视	-7612
感到	-7613
步兵	-7614
玻璃	-7615
真实	-7616
▁Ret	-7617
ander	-7618
Plugin	-7619
typeof	-7620
▁legis	-7621
▁media	-7622
profile	-7623
protobuf	-7624
1+	-7625
Ag	-7626
十字	-7627
埃尔	-7628
家的	-7629
预计	-7630
KEY	-7631
▁广州	-7632
上海市	-7633
inher	-7634
▁Mount	-7635
▁empty	-7636
▁当前时间为	-7637
include	-7638
▁13:57,	-7639
▁useful	-7640
▁register	-7641
▁smalltalk	-7642
▁translateZ	-7643
危险	-7644
新设	-7645
标志	-7646
ris	-7647
▁fl	-7648
奥林匹	-7649
结束后	-7650
JSON	-7651
bold	-7652
encode	-7653
ializer	-7654
▁federal	-7655
▁operations	-7656
BM	-7657
Do	-7658
Ge	-7659
侍郎	-7660
宇宙	-7661
对外	-7662
抵达	-7663
是以	-7664
男性	-7665
舞台	-7666
达尔	-7667
">[	-7668
▁ol	-7669
done	-7670
pull	-7671
▁Cre	-7672
▁User	-7673
▁cool	-7674
▁earlier	-7675
▁expression	-7676
(.	-7677
fl	-7678
周年	-7679
城堡	-7680
栖息	-7681
校园	-7682
派遣	-7683
现任	-7684
约为	-7685
缺乏	-7686
uge	-7687
▁wind	-7688
▁video	-7689
▁forest	-7690
▁payload	-7691
bootstrap	-7692
▁distance	-7693
▁directory	-7694
]]	-7695
▁伊	-7696
合物	-7697
大街	-7698
▁Mo	-7699
▁mix	-7700
slide	-7701
views	-7702
▁Sept	-7703
▁easy	-7704
▁hundred	-7705
▁direction	-7706
Wh	-7707
▁前	-7708
▁罗	-7709
亲王	-7710
今年	-7711
办事	-7712
尔特	-7713
年由	-7714
措施	-7715
Rel	-7716
xid	-7717
▁2;	-7718
ript	-7719
天气变化	-7720
iming	-7721
global	-7722
▁popular	-7723
▁reported	-7724
Assignment	-7725
▁visibility	-7726
▁卡	-7727
用作	-7728
防空	-7729
ald	-7730
cel	-7731
idx	-7732
rew	-7733
▁"/	-7734
▁29	-7735
Json	-7736
iece	-7737
uuid	-7738
▁bad	-7739
▁East	-7740
▁love	-7741
gorith	-7742
isions	-7743
▁click	-7744
▁radio	-7745
注意天气变化	-7746
▁summer	-7747
relative	-7748
▁sequence	-7749
受伤	-7750
杰克	-7751
的话	-7752
转移	-7753
hus	-7754
uby	-7755
each	-7756
ided	-7757
isms	-7758
tags	-7759
▁fru	-7760
▁compared	-7761
▁mathemat	-7762
九龙	-7763
几个	-7764
大师	-7765
确认	-7766
考古	-7767
耶稣	-7768
驾驶	-7769
1</	-7770
Msg	-7771
3333	-7772
ufact	-7773
etween	-7774
▁changed	-7775
▁constit	-7776
▁compliance	-7777
HR	-7778
利斯	-7779
合成	-7780
景区	-7781
机制	-7782
每天	-7783
海道	-7784
经典	-7785
You	-7786
ila	-7787
▁ful	-7788
users	-7789
ysics	-7790
circle	-7791
▁virus	-7792
▁origin	-7793
▁variety	-7794
parentNode	-7795
▁discussion	-7796
不到	-7797
历任	-7798
离子	-7799
讨论	-7800
ham	-7801
的时间	-7802
cean	-7803
make	-7804
▁eth	-7805
▁via	-7806
▁threat	-7807
][	-7808
播放	-7809
绿色	-7810
驱逐	-7811
▁'<	-7812
改名为	-7813
▁Che	-7814
▁Run	-7815
▁inc	-7816
▁lib	-7817
▁mut	-7818
▁analy	-7819
▁north	-7820
▁inside	-7821
▁serious	-7822
▁Licensed	-7823
公爵	-7824
加工	-7825
朝廷	-7826
生存	-7827
编曲	-7828
西兰	-7829
贵族	-7830
180	-7831
job	-7832
体育场	-7833
clar	-7834
math	-7835
▁KIND	-7836
acters	-7837
▁causes	-7838
training	-7839
▁governing	-7840
▁international	-7841
ds	-7842
后期	-7843
空气	-7844
自身	-7845
视频	-7846
ORT	-7847
▁2?	-7848
[0],	-7849
iber	-7850
▁mig	-7851
grass	-7852
▁Read	-7853
▁diet	-7854
protos	-7855
▁accur	-7856
▁bound	-7857
▁French	-7858
▁spirit	-7859
category	-7860
lyphicon	-7861
▁concent	-7862
▁philosoph	-7863
制片	-7864
的水	-7865
美军	-7866
tee	-7867
▁34	-7868
▁LO	-7869
爱尔兰	-7870
ipel	-7871
wide	-7872
▁bur	-7873
allow	-7874
chron	-7875
▁feet	-7876
dialog	-7877
tooltip	-7878
▁France	-7879
▁proces	-7880
▁shared	-7881
▁finally	-7882
▁December	-7883
Description	-7884
在其	-7885
损失	-7886
支付	-7887
袭击	-7888
gan	-7889
▁#3	-7890
▁DO	-7891
▁人口	-7892
POST	-7893
fect	-7894
ssor	-7895
umpy	-7896
被认为是	-7897
stant	-7898
▁Text	-7899
▁infe	-7900
LICENSE	-7901
▁atmosp	-7902
expected	-7903
features	-7904
复杂	-7905
幻想	-7906
民间	-7907
的中	-7908
羽毛	-7909
象征	-7910
这次	-7911
110	-7912
unt	-7913
主题曲	-7914
的一座	-7915
ires	-7916
▁1);	-7917
▁0.25	-7918
▁third	-7919
Servlet	-7920
ragment	-7921
▁compet	-7922
▁script	-7923
▁winter	-7924
▁November	-7925
BA	-7926
▁山	-7927
▁正	-7928
古代	-7929
影视	-7930
承认	-7931
明星	-7932
本身	-7933
]),	-7934
mdc	-7935
▁".	-7936
4.8,	-7937
lege	-7938
aches	-7939
owers	-7940
▁news	-7941
Window	-7942
▁agree	-7943
▁cluster	-7944
▁positive	-7945
对抗	-7946
年龄	-7947
性质	-7948
投票	-7949
普遍	-7950
机的	-7951
由此	-7952
相互	-7953
秘密	-7954
Dep	-7955
▁"9	-7956
参加了	-7957
奥斯曼	-7958
▁NAME	-7959
▁reli	-7960
anging	-7961
called	-7962
▁County	-7963
▁Unless	-7964
▁proced	-7965
▁compute	-7966
▁beginning	-7967
ii	-7968
一座	-7969
兴趣	-7970
斯克	-7971
斯顿	-7972
组建	-7973
(1)	-7974
UINT	-7975
▁{};	-7976
Batch	-7977
▁Mark	-7978
Dr	-7979
公斤	-7980
就会	-7981
律宾	-7982
标本	-7983
源于	-7984
iny	-7985
▁db	-7986
▁简介	-7987
菲律宾	-7988
lets	-7989
note	-7990
▁0.8	-7991
▁Str	-7992
embed	-7993
anning	-7994
▁Since	-7995
Selected	-7996
fc	-7997
▁为	-7998
▁二	-7999
免费	-8000
卫星	-8001
字母	-8002
的三	-8003
":[	-8004
700	-8005
]</	-8006
▁kw	-8007
克里斯	-8008
ROUP	-8009
▁128	-8010
▁deg	-8011
<>();	-8012
bruary	-8013
▁comes	-8014
▁staff	-8015
package	-8016
respond	-8017
▁Africa	-8018
Contents	-8019
▁Japanese	-8020
application	-8021
▁Environment	-8022
xl	-8023
一级	-8024
一郎	-8025
埃及	-8026
支援	-8027
游泳	-8028
码头	-8029
Can	-8030
ROM	-8031
▁音乐	-8032
ario	-8033
vest	-8034
▁Val	-8035
▁rap	-8036
odies	-8037
▁reve	-8038
▁stay	-8039
ouncil	-8040
Returns	-8041
arnings	-8042
▁returns	-8043
▁projects	-8044
▁established	-8045
{}	-8046
人和	-8047
公民	-8048
园区	-8049
并将	-8050
晋级	-8051
该庄	-8052
院长	-8053
":"	-8054
ints	-8055
▁Cong	-8056
▁wrap	-8057
▁earth	-8058
▁lives	-8059
▁places	-8060
rs	-8061
即使	-8062
实行	-8063
并未	-8064
收视	-8065
mob	-8066
▁er	-8067
实际上	-8068
是法国	-8069
Each	-8070
care	-8071
▁1.0	-8072
ERROR	-8073
isode	-8074
xdocS	-8075
▁Lear	-8076
umption	-8077
▁getting	-8078
zo	-8079
住宅	-8080
剧集	-8081
四十	-8082
墨西	-8083
止于	-8084
省道	-8085
认识	-8086
▁gc	-8087
▁sb	-8088
EMAIL	-8089
ience	-8090
price	-8091
▁2001	-8092
▁kids	-8093
▁links	-8094
▁south	-8095
License	-8096
▁People	-8097
▁depend	-8098
interface	-8099
▁CONDITION	-8100
▁presented	-8101
信号	-8102
差异	-8103
芬兰	-8104
黄金	-8105
:15	-8106
ple	-8107
semb	-8108
uple	-8109
▁mot	-8110
stack	-8111
▁errors	-8112
加州	-8113
拉丁	-8114
比利	-8115
被迫	-8116
组成的	-8117
0,0,	-8118
▁Sub	-8119
ooter	-8120
mapapi	-8121
▁Techn	-8122
▁reach	-8123
account	-8124
heading	-8125
▁central	-8126
▁perhaps	-8127
▁European	-8128
主场	-8129
关键	-8130
变得	-8131
在大	-8132
地面	-8133
文明	-8134
编辑	-8135
里亚	-8136
食用	-8137
:12	-8138
ssf	-8139
▁went	-8140
▁habit	-8141
objects	-8142
pressed	-8143
▁decade	-8144
▁situation	-8145
制的	-8146
君主	-8147
周期	-8148
品种	-8149
比如	-8150
爱情	-8151
队长	-8152
","	-8153
Book	-8154
cest	-8155
skip	-8156
ellig	-8157
urity	-8158
▁advant	-8159
▁Default	-8160
▁district	-8161
▁developing	-8162
▁everything	-8163
:9	-8164
vo	-8165
▁阴	-8166
关闭	-8167
助理	-8168
发挥	-8169
西洋	-8170
Tmp	-8171
▁ca	-8172
分别为	-8173
命名为	-8174
中国人民	-8175
▁Sans	-8176
leased	-8177
▁daily	-8178
▁river	-8179
,「	-8180
>)	-8181
一切	-8182
估计	-8183
剧院	-8184
启动	-8185
周围	-8186
用途	-8187
的事	-8188
访问	-8189
sys	-8190
十二年	-8191
1991	-8192
MENT	-8193
cert	-8194
cred	-8195
('../	-8196
apply	-8197
coder	-8198
▁Even	-8199
▁glob	-8200
resses	-8201
▁House	-8202
▁Museum	-8203
▁Because	-8204
▁devices	-8205
▁extreme	-8206
▁someone	-8207
▁strateg	-8208
EM	-8209
}>	-8210
党的	-8211
冬季	-8212
少数	-8213
往往	-8214
无人	-8215
权利	-8216
移民	-8217
辖区	-8218
通道	-8219
git	-8220
iet	-8221
non	-8222
dule	-8223
shot	-8224
uses	-8225
▁sys	-8226
Param	-8227
▁exact	-8228
▁night	-8229
getName	-8230
ullable	-8231
CD	-8232
冲突	-8233
成长	-8234
王子	-8235
的海	-8236
运用	-8237
ech	-8238
▁Ke	-8239
▁cb	-8240
ball	-8241
ober	-8242
ament	-8243
Storage	-8244
▁styles	-8245
▁failure	-8246
▁purpose	-8247
▁validate	-8248
▁variables	-8249
2+	-8250
SA	-8251
地产	-8252
地带	-8253
能量	-8254
说明	-8255
Sum	-8256
cmd	-8257
▁">	-8258
▁DE	-8259
▁Sm	-8260
▁台湾	-8261
人民币	-8262
▁Lin	-8263
▁Top	-8264
ially	-8265
ublish	-8266
▁batch	-8267
▁favor	-8268
contents	-8269
▁ancient	-8270
▁forward	-8271
▁leading	-8272
▁capacity	-8273
次年	-8274
顾问	-8275
:19	-8276
Rem	-8277
cas	-8278
ida	-8279
="0"	-8280
Pool	-8281
▁pet	-8282
olicy	-8283
Values	-8284
banner	-8285
▁modal	-8286
▁figure	-8287
▁requires	-8288
▁security	-8289
Expression	-8290
blockchain	-8291
▁transport	-8292
▁identified	-8293
代理	-8294
保证	-8295
私人	-8296
Rob	-8297
ias	-8298
▁75	-8299
艺术家	-8300
1993	-8301
eper	-8302
▁Make	-8303
▁menu	-8304
Logger	-8305
health	-8306
orange	-8307
points	-8308
▁hands	-8309
▁former	-8310
▁streng	-8311
▁Internet	-8312
sb	-8313
下了	-8314
大夫	-8315
成就	-8316
我国	-8317
职务	-8318
-17	-8319
▁家族	-8320
四川省	-8321
lags	-8322
mbda	-8323
▁won	-8324
limin	-8325
▁dead	-8326
▁keys	-8327
▁drink	-8328
▁usage	-8329
Network	-8330
izations	-8331
▁September	-8332
So	-8333
太空	-8334
扮演	-8335
探索	-8336
政权	-8337
测量	-8338
而言	-8339
采取	-8340
难以	-8341
的问题	-8342
Rule	-8343
▁150	-8344
▁Met	-8345
FAULT	-8346
▁sunny	-8347
execute	-8348
▁valign	-8349
▁Austral	-8350
▁average	-8351
▁influence	-8352
rt	-8353
在一	-8354
岁时	-8355
战队	-8356
游客	-8357
终于	-8358
▁政治	-8359
大学的	-8360
的作品	-8361
葡萄牙	-8362
cope	-8363
hood	-8364
wood	-8365
▁0.4	-8366
▁Key	-8367
▁Sec	-8368
rowse	-8369
score	-8370
atalog	-8371
jection	-8372
▁George	-8373
▁aspect	-8374
▁larger	-8375
▁repeat	-8376
7+	-8377
`,	-8378
gc	-8379
▁巴	-8380
临床	-8381
威胁	-8382
淘汰	-8383
▁结果	-8384
万美元	-8385
科学家	-8386
-2.0	-8387
1985	-8388
1989	-8389
ford	-8390
Mouse	-8391
crypt	-8392
▁Each	-8393
▁Over	-8394
▁movement	-8395
▁Collection	-8396
\\	-8397
分配	-8398
可达	-8399
同学	-8400
开设	-8401
洛杉	-8402
货币	-8403
ota	-8404
wer	-8405
▁交通	-8406
但由于	-8407
附近的	-8408
▁120	-8409
▁400	-8410
▁Old	-8411
allet	-8412
ville	-8413
▁Java	-8414
▁cline	-8415
▁miles	-8416
▁failed	-8417
▁quickly	-8418
▁Foundation	-8419
▁distribution	-8420
Bu	-8421
OK	-8422
天堂	-8423
演奏	-8424
装甲	-8425
举行的	-8426
北京市	-8427
奥运会	-8428
game	-8429
utor	-8430
badge	-8431
junit	-8432
▁feed	-8433
Params	-8434
darken	-8435
▁claim	-8436
▁neigh	-8437
▁speed	-8438
▁Mexico	-8439
)/	-8440
gs	-8441
传媒	-8442
克尔	-8443
电机	-8444
种子	-8445
重大	-8446
%20	-8447
)){	-8448
mag	-8449
部电影	-8450
▁Her	-8451
▁PRO	-8452
Issue	-8453
admin	-8454
idents	-8455
submit	-8456
▁detect	-8457
ribution	-8458
▁towards	-8459
合约	-8460
学士	-8461
形象	-8462
精灵	-8463
色列	-8464
ARE	-8465
John	-8466
aled	-8467
olic	-8468
opts	-8469
▁Gra	-8470
▁decla	-8471
ression	-8472
▁choose	-8473
▁records	-8474
ategories	-8475
▁generation	-8476
6-	-8477
十月	-8478
对方	-8479
神秘	-8480
科夫	-8481
间的	-8482
▁("	-8483
Port	-8484
heel	-8485
▁Don	-8486
▁Off	-8487
delay	-8488
▁died	-8489
▁carry	-8490
atalake	-8491
raction	-8492
▁sexual	-8493
callback	-8494
contains	-8495
▁solution	-8496
WellDouble	-8497
4)	-8498
上下	-8499
信仰	-8500
修建	-8501
列入	-8502
功率	-8503
发明	-8504
康熙	-8505
最多	-8506
终点	-8507
omy	-8508
van	-8509
可能会	-8510
colog	-8511
rieved	-8512
schema	-8513
▁music	-8514
rations	-8515
▁danger	-8516
▁constant	-8517
▁otherwise	-8518
(11	-8519
BML	-8520
rum	-8521
▁最佳	-8522
居委会	-8523
洛杉矶	-8524
Drag	-8525
roke	-8526
▁"2"	-8527
▁dry	-8528
Arrow	-8529
▁opts	-8530
bucket	-8531
▁BASIS	-8532
▁David	-8533
▁Event	-8534
▁Water	-8535
▁param	-8536
▁visual	-8537
▁February	-8538
▁CONDITIONS	-8539
他与	-8540
名义	-8541
地图	-8542
欧元	-8543
营运	-8544
论文	-8545
250	-8546
TER	-8547
的儿子	-8548
pers	-8549
yond	-8550
▁Loc	-8551
ivation	-8552
▁Canada	-8553
▁kwargs	-8554
▁counter	-8555
▁remember	-8556
▁transfer	-8557
▁generated	-8558
のち	-8559
本地	-8560
转会	-8561
辽宁	-8562
餐厅	-8563
Big	-8564
Mar	-8565
特别是	-8566
▁fun	-8567
▁Care	-8568
▁Form	-8569
▁deci	-8570
▁meas	-8571
arbage	-8572
▁Carol	-8573
▁alcoh	-8574
▁queue	-8575
▁Church	-8576
▁footer	-8577
▁Project	-8578
▁invalid	-8579
2。	-8580
乡试	-8581
亦有	-8582
公众	-8583
加拉	-8584
北方	-8585
同比	-8586
小型	-8587
师范	-8588
引入	-8589
弗里	-8590
形状	-8591
武装	-8592
污染	-8593
表达	-8594
Pop	-8595
equ	-8596
另一个	-8597
____	-8598
▁Bra	-8599
▁Dec	-8600
▁700;	-8601
▁View	-8602
▁isol	-8603
danger	-8604
ibling	-8605
▁trade	-8606
▁beyond	-8607
▁creating	-8608
▁settings	-8609
▁instanceof	-8610
▁applications	-8611
bx	-8612
fs	-8613
修改	-8614
年初	-8615
年到	-8616
画家	-8617
骑兵	-8618
鸟类	-8619
ctr	-8620
ess	-8621
ros	-8622
的基础	-8623
1988	-8624
Tour	-8625
ying	-8626
▁rapid	-8627
▁accomp	-8628
▁season	-8629
▁Francis	-8630
▁brought	-8631
七月	-8632
传播	-8633
公子	-8634
奥尔	-8635
平原	-8636
竞赛	-8637
黄色	-8638
dims	-8639
▁die	-8640
Graph	-8641
icket	-8642
▁Plat	-8643
▁audio	-8644
▁veget	-8645
▁forces	-8646
▁maximum	-8647
▁schools	-8648
▁characters	-8649
▁implements	-8650
.8	-8651
TY	-8652
cs	-8653
上了	-8654
上有	-8655
分离	-8656
女王	-8657
意为	-8658
转向	-8659
那些	-8660
116	-8661
2.5	-8662
Cal	-8663
Doc	-8664
▁0.0	-8665
▁Russ	-8666
▁held	-8667
attach	-8668
▁board	-8669
checkbox	-8670
glyphicon	-8671
▁examples	-8672
▁manufact	-8673
▁teachers	-8674
▁management	-8675
光绪	-8676
卫冕	-8677
资本	-8678
辛巴	-8679
:17	-8680
▁31	-8681
办事处	-8682
在一起	-8683
TEST	-8684
GROUP	-8685
tbody	-8686
Species	-8687
ilitary	-8688
▁humans	-8689
▁looking	-8690
▁有	-8691
平面	-8692
规范	-8693
Cur	-8694
1980	-8695
plot	-8696
rase	-8697
reek	-8698
▁eye	-8699
ubble	-8700
▁lack	-8701
▁norm	-8702
agraph	-8703
▁patch	-8704
▁rainy	-8705
▁adults	-8706
▁Company	-8707
▁Integer	-8708
▁followed	-8709
▁Association	-8710
丈夫	-8711
北美	-8712
半年	-8713
天下	-8714
种植	-8715
所属的	-8716
fixed	-8717
oring	-8718
stamp	-8719
▁sett	-8720
▁expos	-8721
storage	-8722
▁Buffer	-8723
▁female	-8724
▁culture	-8725
▁largest	-8726
▁maintain	-8727
▁optional	-8728
▁calculate	-8729
▁configuration	-8730
3+	-8731
克拉	-8732
匈牙	-8733
喜剧	-8734
外国	-8735
天然	-8736
恐龙	-8737
普查	-8738
海外	-8739
签署	-8740
▁UN	-8741
匈牙利	-8742
1987	-8743
2.0/	-8744
Bean	-8745
Byte	-8746
JECT	-8747
Load	-8748
ises	-8749
▁Let	-8750
▁pages	-8751
▁plans	-8752
xdocSyn	-8753
▁Hamlet	-8754
▁easily	-8755
▁providing	-8756
▁对	-8757
一段	-8758
普鲁	-8759
的两	-8760
篮球	-8761
LECT	-8762
oder	-8763
hesis	-8764
radio	-8765
factom	-8766
ricult	-8767
▁basis	-8768
▁moved	-8769
▁highly	-8770
▁browser	-8771
innovation	-8772
.9	-8773
CR	-8774
含有	-8775
定为	-8776
巴尔	-8777
月至	-8778
贵州	-8779
身为	-8780
结果为	-8781
rast	-8782
▁Gen	-8783
imate	-8784
▁diff	-8785
Dialog	-8786
embers	-8787
ensity	-8788
switch	-8789
▁instr	-8790
Control	-8791
▁comment	-8792
▁国	-8793
乘客	-8794
合同	-8795
手术	-8796
持有	-8797
的后	-8798
西方	-8799
ADD	-8800
▁sv	-8801
世界上	-8802
000;	-8803
osis	-8804
oting	-8805
peated	-8806
isEmpty	-8807
private	-8808
▁assess	-8809
▁occurs	-8810
▁spread	-8811
▁install	-8812
.7	-8813
:8	-8814
为止	-8815
心脏	-8816
更为	-8817
爱德	-8818
瑞士	-8819
称号	-8820
营业	-8821
路段	-8822
软件	-8823
释放	-8824
▁Py	-8825
答案是	-8826
ingu	-8827
rule	-8828
▁Why	-8829
无线电视	-8830
phone	-8831
report	-8832
▁psych	-8833
install	-8834
keyword	-8835
▁behind	-8836
▁messages	-8837
▁Education	-8838
▁石	-8839
乡道	-8840
人工	-8841
函数	-8842
在该	-8843
工具	-8844
市民	-8845
条约	-8846
每日	-8847
龙科	-8848
ART	-8849
inc	-8850
▁La	-8851
▁小雨	-8852
1818	-8853
noty	-8854
oted	-8855
rank	-8856
Order	-8857
force	-8858
▁1998	-8859
▁east	-8860
▁weeks	-8861
clusion	-8862
▁mental	-8863
第二次世界大战	-8864
generate	-8865
▁architecture	-8866
▁杨	-8867
以为	-8868
年时	-8869
特兰	-8870
Red	-8871
jit	-8872
以色列	-8873
法兰克	-8874
▁Nor	-8875
▁got	-8876
的情况下	-8877
layers	-8878
Pattern	-8879
▁exists	-8880
Settings	-8881
vertical	-8882
▁子	-8883
伯爵	-8884
公分	-8885
安打	-8886
干部	-8887
波斯	-8888
港口	-8889
硫化	-8890
ASA	-8891
ORM	-8892
nes	-8893
pla	-8894
▁48	-8895
国务院	-8896
sell	-8897
▁Imp	-8898
▁Our	-8899
▁hot	-8900
奥林匹克	-8901
/2.0/	-8902
inite	-8903
urren	-8904
Vector	-8905
turner	-8906
▁quite	-8907
▁wrong	-8908
▁illust	-8909
▁symbol	-8910
▁benefits	-8911
▁patterns	-8912
▁extension	-8913
placeholder	-8914
十大	-8915
吸收	-8916
困难	-8917
打造	-8918
隶属	-8919
625	-8920
pha	-8921
Drop	-8922
hens	-8923
▁0%,	-8924
▁这个算	-8925
=4.8,	-8926
lower	-8927
▁ISBN	-8928
coding	-8929
orders	-8930
▁factor	-8931
▁College	-8932
不要	-8933
五月	-8934
全长	-8935
创始	-8936
圆形	-8937
年号	-8938
投降	-8939
本科	-8940
证据	-8941
:50	-8942
=</	-8943
acon	-8944
clus	-8945
pret	-8946
tric	-8947
▁mid	-8948
stats	-8949
▁1980	-8950
式的答案是	-8951
igator	-8952
▁Input	-8953
▁Develop	-8954
▁Optional	-8955
▁这个算式的答案是	-8956
Jo	-8957
SO	-8958
SU	-8959
▁周	-8960
作出	-8961
各类	-8962
地质	-8963
意外	-8964
斯塔	-8965
此次	-8966
的不	-8967
▁""	-8968
▁第三	-8969
可以在	-8970
研究院	-8971
days	-8972
▁Rel	-8973
▁ast	-8974
▁colors	-8975
▁garbage	-8976
▁components	-8977
:7	-8978
中共	-8979
交响	-8980
会员	-8981
农村	-8982
声音	-8983
复兴	-8984
案件	-8985
EXT	-8986
▁Bl	-8987
▁RE	-8988
▁bg	-8989
▁晴朗	-8990
主要是	-8991
gers	-8992
rier	-8993
▁Rad	-8994
azard	-8995
▁1990	-8996
▁enem	-8997
▁hope	-8998
ounded	-8999
▁asked	-9000
Enabled	-9001
▁observ	-9002
Selector	-9003
▁headers	-9004
secondary	-9005
▁believed	-9006
+1	-9007
依然	-9008
大字	-9009
来越	-9010
短期	-9011
神话	-9012
签约	-9013
顺利	-9014
'):	-9015
adv	-9016
——《	-9017
▁のち	-9018
▁声优	-9019
▁深圳	-9020
主要的	-9021
联合国	-9022
越来越	-9023
aven	-9024
asion	-9025
javax	-9026
orded	-9027
▁Cour	-9028
▁Park	-9029
▁vict	-9030
▁choice	-9031
▁father	-9032
▁receive	-9033
Controller	-9034
_0	-9035
令人	-9036
参谋	-9037
将在	-9038
感觉	-9039
明确	-9040
请求	-9041
256	-9042
ALL	-9043
Ind	-9044
flu	-9045
ita	-9046
."""	-9047
loom	-9048
▁eat	-9049
forms	-9050
licit	-9051
▁desp	-9052
illing	-9053
raight	-9054
vetica	-9055
▁React	-9056
ologies	-9057
getValue	-9058
▁license	-9059
Operation	-9060
▁overcast	-9061
transparent	-9062
▁IOException	-9063
Bl	-9064
hs	-9065
京都	-9066
密度	-9067
正月	-9068
退出	-9069
ATA	-9070
▁36	-9071
▁65	-9072
▁Lo	-9073
工作室	-9074
total	-9075
utral	-9076
▁Home	-9077
Events	-9078
Record	-9079
▁broad	-9080
protocol	-9081
▁samples	-9082
lications	-9083
_.	-9084
fr	-9085
会上	-9086
大众	-9087
大小	-9088
强烈	-9089
方便	-9090
衣笠	-9091
评估	-9092
Idx	-9093
cla	-9094
▁Jo	-9095
▁Ob	-9096
墨西哥	-9097
Bytes	-9098
Files	-9099
▁Span	-9100
▁James	-9101
▁Medic	-9102
▁civil	-9103
servlet	-9104
argument	-9105
▁efforts	-9106
Deprecated	-9107
▁Christian	-9108
kg	-9109
▁水	-9110
与其	-9111
单元	-9112
原名	-9113
市长	-9114
弗拉	-9115
成分	-9116
退休	-9117
bur	-9118
受欢迎	-9119
建立了	-9120
Span	-9121
chat	-9122
shop	-9123
▁Jes	-9124
chart	-9125
▁Thus	-9126
▁gold	-9127
ysical	-9128
▁labor	-9129
▁sites	-9130
Registry	-9131
settings	-9132
▁October	-9133
▁establish	-9134
.<	-9135
/%	-9136
三世	-9137
充分	-9138
巡回	-9139
挪威	-9140
立即	-9141
而不	-9142
股权	-9143
配置	-9144
Job	-9145
ena	-9146
ett	-9147
hpx	-9148
uri	-9149
▁@-	-9150
IRIn	-9151
bert	-9152
kins	-9153
▁Lab	-9154
职业生涯	-9155
netic	-9156
▁Oper	-9157
▁aria	-9158
▁bits	-9159
▁bool	-9160
▁pack	-9161
anding	-9162
square	-9163
▁guide	-9164
▁incor	-9165
(0,0,0,	-9166
▁execut	-9167
▁nowrap	-9168
▁actions	-9169
▁separate	-9170
两次	-9171
大使	-9172
尝试	-9173
得知	-9174
方言	-9175
DIV	-9176
MAX	-9177
▁ST	-9178
民主党	-9179
enry	-9180
west	-9181
▁#33	-9182
哥伦比亚	-9183
lates	-9184
matic	-9185
▁Book	-9186
ichard	-9187
parser	-9188
vision	-9189
▁severe	-9190
Protocol	-9191
presents	-9192
▁located	-9193
2:	-9194
▁据	-9195
桥梁	-9196
详细	-9197
亚历山	-9198
十一年	-9199
数量为	-9200
的设计	-9201
appe	-9202
hest	-9203
idge	-9204
▁cub	-9205
▁sold	-9206
======	-9207
witter	-9208
▁foods	-9209
▁inputs	-9210
▁parser	-9211
▁Function	-9212
bd	-9213
十七	-9214
律师	-9215
签订	-9216
:14	-9217
LAY	-9218
Mat	-9219
Mon	-9220
__)	-9221
alm	-9222
斯拉夫	-9223
-"]:	-9224
ixel	-9225
lash	-9226
legal	-9227
▁Pass	-9228
▁baby	-9229
accent	-9230
prefix	-9231
▁Config	-9232
▁placed	-9233
▁prefer	-9234
Descript	-9235
username	-9236
▁reports	-9237
▁electric	-9238
▁construct	-9239
之女	-9240
克林	-9241
商品	-9242
已有	-9243
收集	-9244
第八	-9245
首个	-9246
pur	-9247
yal	-9248
▁家庭	-9249
詹姆斯	-9250
Spec	-9251
atre	-9252
▁Hash	-9253
▁acid	-9254
▁lost	-9255
▁told	-9256
▁setup	-9257
colLast	-9258
stances	-9259
colFirst	-9260
▁picture	-9261
▁reflect	-9262
▁remains	-9263
▁contents	-9264
▁gasoline	-9265
▁containing	-9266
[3	-9267
gi	-9268
▁古	-9269
上升	-9270
军团	-9271
定理	-9272
成了	-9273
金曲	-9274
585	-9275
任命为	-9276
河南省	-9277
aign	-9278
imed	-9279
velo	-9280
▁[0,	-9281
Close	-9282
▁Http	-9283
▁Then	-9284
。2010	-9285
▁计算结果为	-9286
mission	-9287
▁cloudy	-9288
▁survey	-9289
▁monitor	-9290
▁recently	-9291
▁importance	-9292
▁differences	-9293
势力	-9294
各个	-9295
立法	-9296
ipp	-9297
uya	-9298
▁pp	-9299
是香港	-9300
Send	-9301
uest	-9302
▁Leg	-9303
atest	-9304
▁Just	-9305
▁blue	-9306
scribe	-9307
▁stage	-9308
▁yield	-9309
ospital	-9310
tagName	-9311
▁degree	-9312
▁layers	-9313
Metadata	-9314
services	-9315
▁reasons	-9316
▁proposed	-9317
书籍	-9318
代目	-9319
只要	-9320
史上	-9321
时任	-9322
障碍	-9323
Net	-9324
TEX	-9325
XML	-9326
ago	-9327
是一部	-9328
abet	-9329
diff	-9330
pool	-9331
▁Pri	-9332
ousel	-9333
▁Stat	-9334
scores	-9335
ipeline	-9336
toEqual	-9337
ynchron	-9338
▁segment	-9339
▁strategies	-9340
▁communities	-9341
协调	-9342
文字	-9343
港元	-9344
立方	-9345
金牌	-9346
>",	-9347
URE	-9348
Ver	-9349
▁5,	-9350
的原因	-9351
辛巴威	-9352
Scope	-9353
blank	-9354
▁Code	-9355
▁nest	-9356
▁hypot	-9357
Boolean	-9358
........	-9359
▁appears	-9360
▁billion	-9361
streaming	-9362
▁completely	-9363
9+	-9364
传教	-9365
甘肃	-9366
维斯	-9367
获取	-9368
销量	-9369
oth	-9370
kens	-9371
▁Sur	-9372
delta	-9373
iling	-9374
slice	-9375
Delete	-9376
decode	-9377
ontser	-9378
Browser	-9379
▁Council	-9380
▁logging	-9381
▁timeout	-9382
▁trigger	-9383
Extension	-9384
Microsoft	-9385
▁President	-9386
▁implementation	-9387
на	-9388
▁в	-9389
尔夫	-9390
州长	-9391
成熟	-9392
根廷	-9393
联网	-9394
角度	-9395
预测	-9396
领土	-9397
▁行政	-9398
发现了	-9399
得到了	-9400
sers	-9401
最终幻想	-9402
▁Only	-9403
▁viol	-9404
▁Human	-9405
▁debug	-9406
▁numer	-9407
▁optim	-9408
amphora	-9409
ontserrat	-9410
▁datetime	-9411
▁continued	-9412
▁statement	-9413
二人	-9414
出席	-9415
山县	-9416
得名	-9417
循环	-9418
文艺	-9419
的最	-9420
PER	-9421
Use	-9422
VID	-9423
_1.	-9424
hav	-9425
▁):	-9426
▁Air	-9427
Float	-9428
spark	-9429
Border	-9430
▁price	-9431
▁limited	-9432
▁evolutionary	-9433
,2	-9434
>'	-9435
下午	-9436
分支	-9437
创业	-9438
发起	-9439
宪法	-9440
岛屿	-9441
消失	-9442
爱的	-9443
确保	-9444
突破	-9445
道光	-9446
领袖	-9447
(0)	-9448
Cla	-9449
tri	-9450
▁PO	-9451
Auth	-9452
alls	-9453
▁50%	-9454
emory	-9455
nodes	-9456
rated	-9457
▁Bank	-9458
▁Base	-9459
▁ones	-9460
奥斯曼帝国	-9461
mobile	-9462
▁Carolina	-9463
pagination	-9464
structions	-9465
My	-9466
▁郑	-9467
严格	-9468
名人	-9469
大多	-9470
并以	-9471
收藏	-9472
构造	-9473
院士	-9474
▁Lu	-9475
出入口	-9476
dash	-9477
▁结果是	-9478
osite	-9479
▁Once	-9480
▁axis	-9481
▁cook	-9482
▁farm	-9483
Account	-9484
invalid	-9485
▁machine	-9486
▁meeting	-9487
▁affected	-9488
▁traditional	-9489
>"	-9490
FE	-9491
上述	-9492
候选	-9493
公交	-9494
十九	-9495
商人	-9496
理事	-9497
理工	-9498
电车	-9499
禁止	-9500
胜出	-9501
英超	-9502
面临	-9503
UNT	-9504
isf	-9505
这样的	-9506
nded	-9507
▁mask	-9508
▁rare	-9509
▁weak	-9510
gments	-9511
▁beaut	-9512
▁finan	-9513
.*	-9514
/3	-9515
JR	-9516
但他	-9517
加利	-9518
即位	-9519
棒球	-9520
比尔	-9521
细菌	-9522
伊斯兰	-9523
cape	-9524
spir	-9525
▁'./	-9526
mazon	-9527
▁Fact	-9528
Active	-9529
▁adopt	-9530
▁aware	-9531
▁fully	-9532
▁nearly	-9533
▁reader	-9534
Transaction	-9535
▁previously	-9536
GC	-9537
▁永	-9538
华人	-9539
将领	-9540
山市	-9541
开工	-9542
录音	-9543
时段	-9544
财产	-9545
首播	-9546
nob	-9547
sch	-9548
柴油机	-9549
-100	-9550
edge	-9551
emon	-9552
king	-9553
▁exc	-9554
▁wel	-9555
国际机场	-9556
eners	-9557
sample	-9558
▁speak	-9559
columns	-9560
Abstract	-9561
▁correspond	-9562
▁四	-9563
台中	-9564
犹太	-9565
蒙特	-9566
阻止	-9567
UID	-9568
`);	-9569
fol	-9570
kes	-9571
▁EX	-9572
医学院	-9573
卢瓦尔	-9574
Card	-9575
itis	-9576
▁lic	-9577
craft	-9578
iques	-9579
month	-9580
xygen	-9581
▁Cons	-9582
▁Name	-9583
▁tick	-9584
▁friend	-9585
▁Natural	-9586
ictionary	-9587
▁families	-9588
丹尼	-9589
主张	-9590
哈利	-9591
物的	-9592
觉得	-9593
适应	-9594
▁ow	-9595
▁荣誉	-9596
的女儿	-9597
部尚书	-9598
__).	-9599
even	-9600
▁cam	-9601
▁fel	-9602
轨道交通	-9603
Scale	-9604
ipment	-9605
▁Block	-9606
▁cubic	-9607
▁split	-9608
▁charge	-9609
▁moment	-9610
▁trying	-9611
▁discovered	-9612
》)	-9613
充满	-9614
动车	-9615
地名	-9616
它是	-9617
选为	-9618
高达	-9619
龙的	-9620
"){	-9621
125	-9622
yui	-9623
▁#4	-9624
▁相关	-9625
山东省	-9626
良好的	-9627
Only	-9628
atio	-9629
reet	-9630
▁Cur	-9631
▁enh	-9632
▁hon	-9633
iency	-9634
mouse	-9635
urred	-9636
▁poly	-9637
yellow	-9638
▁Virgin	-9639
comments	-9640
▁achieve	-9641
▁Building	-9642
两年	-9643
在于	-9644
局长	-9645
弟弟	-9646
德军	-9647
快乐	-9648
橡胶	-9649
流域	-9650
深入	-9651
留守	-9652
类的	-9653
繁殖	-9654
美丽	-9655
艺人	-9656
都督	-9657
2">	-9658
PAT	-9659
省道台	-9660
']['	-9661
ibly	-9662
ucle	-9663
dijit	-9664
▁Wild	-9665
▁enjo	-9666
▁pick	-9667
Author	-9668
▁trust	-9669
icofont	-9670
trigger	-9671
▁endpoint	-9672
▁日	-9673
加速	-9674
可见	-9675
咨询	-9676
大卫	-9677
山口	-9678
度的	-9679
爆炸	-9680
福德	-9681
跟随	-9682
食性	-9683
','	-9684
Btn	-9685
odd	-9686
▁pa	-9687
▁学校	-9688
1970	-9689
1984	-9690
Bind	-9691
That	-9692
▁ple	-9693
arily	-9694
obile	-9695
quant	-9696
▁stri	-9697
▁Child	-9698
▁Great	-9699
▁commer	-9700
▁Congress	-9701
▁starting	-9702
Definition	-9703
▁recommend	-9704
SV	-9705
xx	-9706
▁п	-9707
呼吸	-9708
大幅	-9709
大阪	-9710
婚姻	-9711
曲目	-9712
月的	-9713
沈阳	-9714
滨海	-9715
联络	-9716
aba	-9717
女主角	-9718
毕业后	-9719
2828	-9720
▁ord	-9721
位于法国	-9722
asket	-9723
▁Rome	-9724
▁tend	-9725
Assert	-9726
compat	-9727
▁Green	-9728
ciences	-9729
▁electr	-9730
▁played	-9731
▁observed	-9732
4"	-9733
发出	-9734
唐朝	-9735
多年	-9736
救援	-9737
晚上	-9738
级的	-9739
部落	-9740
马拉	-9741
高校	-9742
麦克	-9743
46,	-9744
尼亚州	-9745
浙江省	-9746
Cert	-9747
afka	-9748
▁Tur	-9749
▁dog	-9750
香港配音	-9751
arded	-9752
catch	-9753
scape	-9754
short	-9755
urance	-9756
▁Their	-9757
▁adapt	-9758
▁chain	-9759
▁rates	-9760
duction	-9761
▁effort	-9762
NotFound	-9763
以外	-9764
依据	-9765
在他	-9766
富士	-9767
应当	-9768
总监	-9769
总裁	-9770
牵引	-9771
的长	-9772
观点	-9773
财务	-9774
首席	-9775
MIN	-9776
▁"#	-9777
▁"_	-9778
与其他	-9779
greg	-9780
▁Ver	-9781
▁inn	-9782
▁sav	-9783
▁lime	-9784
ademic	-9785
ellect	-9786
▁ALIGN	-9787
▁steps	-9788
▁toward	-9789
▁Another	-9790
▁banking	-9791
▁enabled	-9792
▁therapy	-9793
▁investig	-9794
▁negative	-9795
methodResult	-9796
SL	-9797
ст	-9798
佛罗	-9799
内战	-9800
放送	-9801
海峡	-9802
邻近	-9803
阵容	-9804
hop	-9805
sec	-9806
的道路	-9807
free	-9808
tual	-9809
very	-9810
Props	-9811
▁Mary	-9812
▁News	-9813
▁sets	-9814
SELECT	-9815
▁Under	-9816
▁Method	-9817
▁Scient	-9818
▁equals	-9819
▁genetic	-9820
▁updated	-9821
ов	-9822
出道	-9823
南非	-9824
回归	-9825
巨大	-9826
慈善	-9827
维护	-9828
裁判	-9829
费用	-9830
▁多云	-9831
场比赛	-9832
并止于	-9833
提供了	-9834
Supp	-9835
▁Button	-9836
▁secret	-9837
▁stress	-9838
▁William	-9839
▁dataset	-9840
Application	-9841
Pa	-9842
fg	-9843
宜兰	-9844
年和	-9845
很大	-9846
提到	-9847
永久	-9848
自杀	-9849
:18	-9850
=\"	-9851
duce	-9852
road	-9853
▁Two	-9854
▁god	-9855
exist	-9856
itted	-9857
▁crop	-9858
avatar	-9859
▁villa	-9860
Invalid	-9861
Generator	-9862
▁thinking	-9863
▁navigation	-9864
呈现	-9865
土壤	-9866
如今	-9867
娃娃	-9868
官至	-9869
洛夫	-9870
科研	-9871
蓝色	-9872
!--	-9873
2);	-9874
Bus	-9875
ola	-9876
▁&#	-9877
▁以下	-9878
化合物	-9879
发展的	-9880
imon	-9881
omas	-9882
once	-9883
otes	-9884
▁Vis	-9885
alled	-9886
————《	-9887
▁1000	-9888
Prefix	-9889
atives	-9890
▁Google	-9891
▁labels	-9892
▁preserve	-9893
▁Americans	-9894
MV	-9895
后被	-9896
想要	-9897
染色	-9898
良好	-9899
货运	-9900
▁Sw	-9901
主持人	-9902
方面的	-9903
Help	-9904
ctic	-9905
weet	-9906
▁NOT	-9907
▁[1,	-9908
▁bug	-9909
▁cit	-9910
▁lif	-9911
igure	-9912
▁vacc	-9913
▁walk	-9914
▁/***/	-9915
▁peace	-9916
▁prote	-9917
▁touch	-9918
▁wells	-9919
napshot	-9920
▁formed	-9921
▁capital	-9922
exception	-9923
▁intellig	-9924
▁recorded	-9925
Attributes	-9926
IOException	-9927
▁responsible	-9928
ND	-9929
丁目	-9930
两侧	-9931
出发	-9932
报导	-9933
照片	-9934
现有	-9935
认证	-9936
部的	-9937
马尔	-9938
:16	-9939
Car	-9940
Len	-9941
SET	-9942
fra	-9943
尤其是	-9944
自治区	-9945
Iter	-9946
▁}).	-9947
steps	-9948
▁Open	-9949
▁goes	-9950
▁whom	-9951
Footer	-9952
Global	-9953
record	-9954
▁alone	-9955
attribute	-9956
▁filename	-9957
▁password	-9958
▁typically	-9959
▁immediately	-9960
▁华	-9961
压缩	-9962
厦门	-9963
咖啡	-9964
字子	-9965
成果	-9966
更新	-9967
现实	-9968
留在	-9969
给了	-9970
设定	-9971
相关的	-9972
1982	-9973
zing	-9974
▁gave	-9975
▁mole	-9976
▁African	-9977
▁globals	-9978
DN	-9979
HK	-9980
夏令	-9981
尔顿	-9982
州府	-9983
技能	-9984
拉德	-9985
源自	-9986
犯罪	-9987
理解	-9988
生成	-9989
评为	-9990
ACE	-9991
htm	-9992
▁$.	-9993
IGHT	-9994
▁Div	-9995
▁hig	-9996
▁ult	-9997
World	-9998
ailed	-9999
ernel	-10000
足球运动员	-10001
▁birth	-10002
▁noted	-10003
▁ready	-10004
Mapping	-10005
Sibling	-10006
▁supply	-10007
Elements	-10008
material	-10009
innerHTML	-10010
▁encoding	-10011
1⁄	-10012
▁汉	-10013
实践	-10014
市政	-10015
最为	-10016
权力	-10017
火星	-10018
眼睛	-10019
纤维	-10020
维修	-10021
舞蹈	-10022
默德	-10023
▁分类	-10024
llAR	-10025
some	-10026
▁"./	-10027
▁cru	-10028
▁deb	-10029
Lower	-10030
▁$('#	-10031
▁Lisp	-10032
▁gard	-10033
▁mill	-10034
▁sust	-10035
▁Jesus	-10036
▁views	-10037
STEllAR	-10038
▁chance	-10039
▁insert	-10040
▁abstract	-10041
▁military	-10042
▁released	-10043
▁completed	-10044
DM	-10045
km	-10046
中被	-10047
位的	-10048
八月	-10049
换乘	-10050
推荐	-10051
消防	-10052
监察	-10053
监管	-10054
维埃	-10055
辐射	-10056
通知	-10057
">(	-10058
iti	-10059
}</	-10060
▁#1	-10061
▁Id	-10062
▁nn	-10063
▁本鱼	-10064
哈尔滨	-10065
Enum	-10066
▁Vol	-10067
▁Port	-10068
▁eggs	-10069
Fields	-10070
▁helps	-10071
unately	-10072
internal	-10073
▁Invalid	-10074
▁Service	-10075
▁recover	-10076
▁requests	-10077
▁reserved	-10078
6+	-10079
OS	-10080
专利	-10081
会有	-10082
体重	-10083
对应	-10084
工人	-10085
拓跋	-10086
演化	-10087
物业	-10088
理想	-10089
行的	-10090
诺夫	-10091
运作	-10092
(()	-10093
:",	-10094
eee	-10095
▁成都	-10096
工程师	-10097
所有的	-10098
的第二	-10099
福建省	-10100
erry	-10101
mean	-10102
aling	-10103
▁1997	-10104
▁coup	-10105
▁integr	-10106
▁exposed	-10107
▁radiation	-10108
MT	-10109
VD	-10110
ック	-10111
六月	-10112
太守	-10113
家人	-10114
根本	-10115
现今	-10116
登陆	-10117
西安	-10118
该片	-10119
遇到	-10120
领先	-10121
-13	-10122
-23	-10123
成立的	-10124
Mock	-10125
ango	-10126
igan	-10127
▁Sum	-10128
▁'../	-10129
▁Chic	-10130
▁prev	-10131
cursor	-10132
▁coast	-10133
Members	-10134
returns	-10135
▁schema	-10136
▁worked	-10137
▁Spanish	-10138
highlight	-10139
▁customers	-10140
▁atmosphere	-10141
(?	-10142
▁后	-10143
北魏	-10144
圣经	-10145
是个	-10146
足协	-10147
边缘	-10148
在香港	-10149
当地的	-10150
的能力	-10151
wall	-10152
arian	-10153
icated	-10154
▁100%);	-10155
▁Number	-10156
▁insect	-10157
▁please	-10158
▁reject	-10159
mination	-10160
▁performed	-10161
▁pollution	-10162
▁recognized	-10163
▁requirements	-10164
乡村	-10165
具备	-10166
处的	-10167
岛上	-10168
所属	-10169
排行	-10170
政党	-10171
教宗	-10172
是为	-10173
穆罕	-10174
ito	-10175
法兰西	-10176
Perm	-10177
rief	-10178
▁Bay	-10179
allel	-10180
serial	-10181
forEach	-10182
▁batter	-10183
▁native	-10184
levision	-10185
▁regions	-10186
▁cultural	-10187
▁decision	-10188
▁interval	-10189
主事	-10190
文献	-10191
突出	-10192
融合	-10193
错误	-10194
黑暗	-10195
CRE	-10196
amm	-10197
wel	-10198
▁55	-10199
▁杭州	-10200
以上的	-10201
我们的	-10202
的方法	-10203
西北部	-10204
铁路局	-10205
1-10	-10206
lips	-10207
▁[],	-10208
▁raw	-10209
Modal	-10210
Tower	-10211
▁tiss	-10212
型柴油机车	-10213
▁polic	-10214
▁sound	-10215
▁stored	-10216
▁Program	-10217
▁charset	-10218
▁clearly	-10219
▁experts	-10220
▁explain	-10221
Condition	-10222
▁teaching	-10223
▁standards	-10224
QU	-10225
他还	-10226
包围	-10227
区间	-10228
县道	-10229
哈德	-10230
场景	-10231
定居	-10232
巡洋	-10233
落成	-10234
防止	-10235
颁发	-10236
SEE	-10237
UND	-10238
hot	-10239
ini	-10240
▁1]	-10241
的市镇	-10242
的建筑	-10243
vsis	-10244
▁foc	-10245
人民法院	-10246
博士学位	-10247
apped	-10248
fully	-10249
▁Alex	-10250
▁Page	-10251
▁Paul	-10252
▁attr	-10253
▁Field	-10254
▁Image	-10255
▁multi	-10256
▁worth	-10257
Project	-10258
▁distinct	-10259
tf	-10260
他于	-10261
众多	-10262
免疫	-10263
危机	-10264
及时	-10265
古老	-10266
撤销	-10267
本人	-10268
污水	-10269
派出	-10270
至于	-10271
随即	-10272
dat	-10273
在日本	-10274
▁Any	-10275
▁dir	-10276
husky	-10277
▁LANG	-10278
▁Main	-10279
▁doll	-10280
▁eyes	-10281
▁goal	-10282
vector	-10283
▁mouth	-10284
atically	-10285
▁profile	-10286
▁provider	-10287
XX	-10288
▁神	-10289
室内	-10290
布尔	-10291
布莱	-10292
日常	-10293
服装	-10294
米的	-10295
赫尔	-10296
-">	-10297
Bit	-10298
STR	-10299
cls	-10300
igo	-10301
▁Av	-10302
▁cm	-10303
所在地	-10304
▁Mad	-10305
▁NASA	-10306
▁gray	-10307
▁spec	-10308
▁calls	-10309
resolve	-10310
▁infect	-10311
----------	-10312
ifications	-10313
▁suggested	-10314
▁constructor	-10315
=_	-10316
MD	-10317
gu	-10318
俗称	-10319
印尼	-10320
妹妹	-10321
完工	-10322
当天	-10323
意味	-10324
拿下	-10325
解散	-10326
贷款	-10327
重视	-10328
金刚	-10329
Cre	-10330
▁"5	-10331
河北省	-10332
alib	-10333
▁Sea	-10334
CTYPE	-10335
▁clin	-10336
▁gets	-10337
▁phen	-10338
▁wood	-10339
Bottom	-10340
ivalent	-10341
▁notice	-10342
▁spring	-10343
assignment	-10344
,3	-10345
{%	-10346
▁吉	-10347
▁朱	-10348
▁由	-10349
为其	-10350
偶像	-10351
参考	-10352
同名	-10353
宿舍	-10354
就业	-10355
织田	-10356
编入	-10357
遗迹	-10358
饮食	-10359
mor	-10360
tbl	-10361
▁目前	-10362
子公司	-10363
普鲁士	-10364
郡新设	-10365
deep	-10366
grey	-10367
▁cra	-10368
▁mic	-10369
▁pen	-10370
chunk	-10371
▁didn	-10372
▁road	-10373
Writer	-10374
cision	-10375
elling	-10376
▁stack	-10377
-------	-10378
▁leaves	-10379
Argument	-10380
▁Pacific	-10381
▁illness	-10382
▁reduced	-10383
▁northern	-10384
▁webserver	-10385
》:	-10386
任职	-10387
体验	-10388
光谱	-10389
召开	-10390
天皇	-10391
审判	-10392
扩展	-10393
最低	-10394
雷斯	-10395
10,	-10396
END	-10397
men	-10398
▁++	-10399
羽毛球	-10400
amaz	-10401
grad	-10402
▁Big	-10403
穆罕默德	-10404
aters	-10405
▁1950	-10406
▁bomb	-10407
Schema	-10408
Script	-10409
inated	-10410
▁moving	-10411
▁vision	-10412
NameLink	-10413
▁Document	-10414
LS	-10415
ра	-10416
下令	-10417
九月	-10418
兼任	-10419
军区	-10420
利益	-10421
强调	-10422
背鳍	-10423
致力	-10424
许可	-10425
Own	-10426
osa	-10427
巡洋舰	-10428
的父亲	-10429
管理局	-10430
阿根廷	-10431
).__	-10432
4.5,	-10433
enty	-10434
rich	-10435
▁{},	-10436
olved	-10437
under	-10438
▁FROM	-10439
▁icon	-10440
heimer	-10441
▁About	-10442
▁dtype	-10443
required	-10444
▁Control	-10445
▁Resource	-10446
▁Virginia	-10447
▁exercise	-10448
▁existence	-10449
▁interesting	-10450
rf	-10451
ка	-10452
▁红	-10453
二月	-10454
保守	-10455
入球	-10456
刺激	-10457
城县	-10458
岛的	-10459
房屋	-10460
正确	-10461
直播	-10462
褐色	-10463
("\	-10464
-21	-10465
HER	-10466
gex	-10467
yes	-10468
。12	-10469
旧市镇	-10470
爱德华	-10471
Head	-10472
cook	-10473
deed	-10474
▁hit	-10475
▁son	-10476
省的一个	-10477
颁奖典礼	-10478
Trace	-10479
ancel	-10480
ously	-10481
▁gene	-10482
▁soil	-10483
Custom	-10484
▁Space	-10485
▁chunk	-10486
DOCTYPE	-10487
Process	-10488
▁deliver	-10489
▁smaller	-10490
undefined	-10491
createElement	-10492
上游	-10493
两者	-10494
交换	-10495
以北	-10496
内阁	-10497
同盟	-10498
增强	-10499
必要	-10500
性和	-10501
昆明	-10502
来看	-10503
盛顿	-10504
aco	-10505
ais	-10506
sun	-10507
▁El	-10508
常见的	-10509
年美国	-10510
时期的	-10511
物种的	-10512
9999	-10513
demo	-10514
enth	-10515
rics	-10516
▁0.1	-10517
▁win	-10518
▁1960	-10519
▁cold	-10520
▁star	-10521
Linear	-10522
▁Organ	-10523
明朝政治人物	-10524
▁turned	-10525
lemented	-10526
ographic	-10527
▁Western	-10528
▁reactor	-10529
▁disorder	-10530
▁Commission	-10531
DU	-10532
EB	-10533
cv	-10534
vh	-10535
ws	-10536
单独	-10537
安东	-10538
家中	-10539
引进	-10540
当代	-10541
恒星	-10542
效率	-10543
服役	-10544
民众	-10545
洛阳	-10546
田中	-10547
进步	-10548
重量	-10549
闻名	-10550
47。	-10551
Hdr	-10552
▁#9	-10553
▁).	-10554
▁个人	-10555
、19	-10556
共产党	-10557
系统的	-10558
(100	-10559
onto	-10560
▁IHE	-10561
▁inj	-10562
▁tmp	-10563
工作人员	-10564
power	-10565
▁bill	-10566
aining	-10567
▁Index	-10568
▁initi	-10569
Adapter	-10570
disable	-10571
indexOf	-10572
▁becomes	-10573
▁friends	-10574
getString	-10575
▁critical	-10576
▁frequency	-10577
▁religious	-10578
▁и	-10579
▁이	-10580
修复	-10581
冒险	-10582
卡拉	-10583
原始	-10584
并与	-10585
战场	-10586
海上	-10587
相邻	-10588
约瑟	-10589
00,	-10590
]))	-10591
reci	-10592
▁Ask	-10593
">=</	-10594
▁1988	-10595
▁seed	-10596
▁Peter	-10597
▁costs	-10598
▁leave	-10599
▁shall	-10600
▁squad	-10601
▁waste	-10602
▁Island	-10603
▁behavi	-10604
▁Services	-10605
Descriptor	-10606
concurrent	-10607
▁languages	-10608
=1	-10609
SF	-10610
▁全	-10611
一致	-10612
交界	-10613
享年	-10614
他被	-10615
光明	-10616
活跃	-10617
理念	-10618
苹果	-10619
诗人	-10620
选秀	-10621
集体	-10622
+02	-10623
DAO	-10624
LOG	-10625
▁df	-10626
主教练	-10627
的成员	-10628
线路口	-10629
1082	-10630
anol	-10631
fail	-10632
uing	-10633
ulty	-10634
▁dev	-10635
▁isn	-10636
BJECT	-10637
Region	-10638
cluded	-10639
uggest	-10640
▁eight	-10641
▁endif	-10642
▁Return	-10643
▁planet	-10644
balancer	-10645
children	-10646
operation	-10647
▁changing	-10648
▁powerful	-10649
4+	-10650
?”	-10651
AK	-10652
DY	-10653
PC	-10654
eg	-10655
制成	-10656
小姐	-10657
斯堡	-10658
留下	-10659
西斯	-10660
选区	-10661
都在	-10662
asc	-10663
bez	-10664
lah	-10665
rot	-10666
▁UI	-10667
产生的	-10668
次列车	-10669
opes	-10670
xual	-10671
▁Ent	-10672
▁cri	-10673
INSEE	-10674
antic	-10675
house	-10676
inese	-10677
▁drugs	-10678
▁storm	-10679
▁bodies	-10680
▁candid	-10681
▁ignore	-10682
projects	-10683
▁destroy	-10684
claration	-10685
▁yourself	-10686
▁highlight	-10687
▁requested	-10688
Ac	-10689
NC	-10690
三月	-10691
为此	-10692
伙伴	-10693
日报	-10694
春秋	-10695
普罗	-10696
货物	-10697
较大	-10698
0.5	-10699
});	-10700
▁Bu	-10701
▁Je	-10702
▁故事	-10703
分别是	-10704
的一些	-10705
萨克森	-10706
青少年	-10707
Tool	-10708
▁Pat	-10709
anded	-10710
celer	-10711
mount	-10712
▁vers	-10713
Points	-10714
▁Table	-10715
▁grant	-10716
▁tasks	-10717
alibaba	-10718
▁Global	-10719
language	-10720
ellectual	-10721
▁infinite	-10722
%3	-10723
TP	-10724
两位	-10725
亲自	-10726
加哥	-10727
向东	-10728
尚未	-10729
收费	-10730
辅助	-10731
造型	-10732
部署	-10733
Med	-10734
pad	-10735
rpc	-10736
zen	-10737
▁.2	-10738
副主席	-10739
芝加哥	-10740
MPLE	-10741
ners	-10742
▁fear	-10743
▁plot	-10744
picker	-10745
cluster	-10746
pyspark	-10747
ropical	-10748
▁adjust	-10749
cosystem	-10750
▁mission	-10751
▁perfect	-10752
▁Variable	-10753
▁Retrieved	-10754
assignments	-10755
▁introduced	-10756
▁ReferenceEntry	-10757
EV	-10758
二级	-10759
产地	-10760
人大	-10761
占庭	-10762
声称	-10763
完善	-10764
巡抚	-10765
慕容	-10766
斯托	-10767
股东	-10768
)._	-10769
-1.	-10770
bul	-10771
▁2:	-10772
制作的	-10773
国家级	-10774
大都会	-10775
拜占庭	-10776
比利时	-10777
4.6,	-10778
alic	-10779
▁dou	-10780
▁pul	-10781
-----	-10782
ensis	-10783
meter	-10784
ounce	-10785
▁#0000	-10786
▁Elect	-10787
▁piece	-10788
▁pregn	-10789
logging	-10790
opacity	-10791
▁bacter	-10792
▁dialog	-10793
▁divers	-10794
▁expert	-10795
▁raised	-10796
▁highest	-10797
▁accepted	-10798
▁encourage	-10799
▁吴	-10800
一人	-10801
出局	-10802
场所	-10803
射击	-10804
牙齿	-10805
电动	-10806
直隶	-10807
第九	-10808
职位	-10809
▁.3	-10810
[0];	-10811
wait	-10812
▁Wil	-10813
▁ray	-10814
large	-10815
ansion	-10816
isters	-10817
▁trees	-10818
loading	-10819
submenu	-10820
▁Econom	-10821
▁closed	-10822
▁western	-10823
▁findings	-10824
▁processing	-10825
▁alternative	-10826
▁福	-10827
季后	-10828
实力	-10829
客车	-10830
对此	-10831
庄为	-10832
调节	-10833
▁37	-10834
▁::	-10835
▁SO	-10836
▁sn	-10837
▁游戏	-10838
义大利	-10839
公元前	-10840
发生在	-10841
日正式	-10842
更多的	-10843
DESC	-10844
Math	-10845
uler	-10846
uted	-10847
▁bio	-10848
▁fly	-10849
▁jud	-10850
adian	-10851
eries	-10852
isted	-10853
▁foot	-10854
Resize	-10855
▁emerg	-10856
▁spect	-10857
erature	-10858
optional	-10859
▁spiritual	-10860
”)	-10861
▁艾	-10862
互相	-10863
以南	-10864
克罗	-10865
区内	-10866
即将	-10867
围绕	-10868
地域	-10869
很少	-10870
所谓	-10871
授权	-10872
维生	-10873
记忆	-10874
(".	-10875
,12	-10876
6__	-10877
iki	-10878
mas	-10879
▁Mr	-10880
互联网	-10881
完成了	-10882
计算机	-10883
istr	-10884
pred	-10885
▁bla	-10886
anned	-10887
dtype	-10888
▁1970	-10889
▁rich	-10890
▁zero	-10891
iverse	-10892
sembly	-10893
▁Color	-10894
▁fluid	-10895
reshold	-10896
Nullable	-10897
]+	-10898
ua	-10899
ен	-10900
▁с	-10901
主办	-10902
代替	-10903
似乎	-10904
向南	-10905
推广	-10906
放在	-10907
网球	-10908
-2.	-10909
▁<<	-10910
▁jj	-10911
▁经济	-10912
国家的	-10913
1983	-10914
hero	-10915
▁bed	-10916
▁idx	-10917
ictor	-10918
throp	-10919
video	-10920
▁1994	-10921
inputs	-10922
labels	-10923
library	-10924
zheimer	-10925
▁publish	-10926
▁collabor	-10927
▁measures	-10928
▁practices	-10929
▁historical	-10930
6。	-10931
FL	-10932
}/	-10933
三人	-10934
亦是	-10935
升为	-10936
圣母	-10937
夏威	-10938
年获	-10939
攻打	-10940
添加	-10941
百万	-10942
脱离	-10943
迁至	-10944
ONE	-10945
▁tx	-10946
也就是	-10947
参议院	-10948
夏威夷	-10949
Root	-10950
axip	-10951
bool	-10952
▁Fin	-10953
▁sec	-10954
位于中国	-10955
":[2,	-10956
6__6.	-10957
alloc	-10958
▁Prov	-10959
▁sell	-10960
。2016	-10961
Display	-10962
axipmon	-10963
circuit	-10964
ossible	-10965
▁claims	-10966
▁collap	-10967
▁office	-10968
ordinate	-10969
▁Germany	-10970
▁attempt	-10971
ArrayList	-10972
rightness	-10973
▁contract	-10974
▁exposure	-10975
▁commercial	-10976
,6	-10977
Ke	-10978
升任	-10979
场地	-10980
大理	-10981
学的	-10982
废除	-10983
撤退	-10984
景观	-10985
每周	-10986
清水	-10987
特性	-10988
虚构	-10989
观光	-10990
领队	-10991
에서	-10992
Arc	-10993
oma	-10994
一系列	-10995
华盛顿	-10996
建筑师	-10997
1945	-10998
Main	-10999
cour	-11000
team	-11001
▁-1;	-11002
▁DNA	-11003
▁Nav	-11004
▁ali	-11005
ugins	-11006
chosen	-11007
▁enjoy	-11008
predict	-11009
seconds	-11010
▁satisf	-11011
▁square	-11012
▁Further	-11013
▁derived	-11014
▁extract	-11015
Statement	-11016
namespace	-11017
▁Michigan	-11018
▁presence	-11019
▁advantage	-11020
▁represents	-11021
assertEquals	-11022
▁Environmental	-11023
▁以	-11024
一场	-11025
不满	-11026
为人	-11027
住在	-11028
克的	-11029
古屋	-11030
奴隶	-11031
她在	-11032
平衡	-11033
强的	-11034
投手	-11035
拆除	-11036
有三	-11037
样的	-11038
波罗	-11039
登记	-11040
陆续	-11041
-"]	-11042
BLE	-11043
为法国	-11044
夏令时	-11045
大联盟	-11046
++){	-11047
:00、	-11048
hssf	-11049
iful	-11050
▁std	-11051
其中包括	-11052
▁Node	-11053
▁tags	-11054
足球俱乐部	-11055
logger	-11056
stable	-11057
▁numpy	-11058
initial	-11059
▁gather	-11060
▁wanted	-11061
examples	-11062
metadata	-11063
▁compare	-11064
▁patient	-11065
translate	-11066
▁reaction	-11067
▁equipment	-11068
appendChild	-11069
IF	-11070
ih	-11071
五个	-11072
办理	-11073
北侧	-11074
南昌	-11075
反映	-11076
处罚	-11077
多尔	-11078
打算	-11079
爵士	-11080
环球	-11081
男女	-11082
粤语	-11083
绘画	-11084
罗德	-11085
诊断	-11086
("/	-11087
vie	-11088
北海道	-11089
参议员	-11090
ague	-11091
cart	-11092
four	-11093
▁Cla	-11094
▁Com	-11095
▁Mac	-11096
研究中心	-11097
LAYER	-11098
olver	-11099
onder	-11100
▁400;	-11101
▁Fort	-11102
▁capt	-11103
▁desc	-11104
▁tele	-11105
▁hydro	-11106
▁score	-11107
▁miRNAs	-11108
▁offers	-11109
▁showed	-11110
▁stroke	-11111
▁Medical	-11112
▁college	-11113
▁divided	-11114
▁persons	-11115
SetDouble	-11116
▁disabled	-11117
HttpServlet	-11118
▁Information	-11119
PV	-11120
rd	-11121
▁米	-11122
中书	-11123
军官	-11124
出赛	-11125
县的	-11126
古典	-11127
四大	-11128
四月	-11129
有两	-11130
球迷	-11131
田村	-11132
西侧	-11133
abs	-11134
▁国际	-11135
杯冠军	-11136
设计师	-11137
配音员	-11138
Auto	-11139
lebr	-11140
ston	-11141
▁ing	-11142
汇丰银行	-11143
Space	-11144
andom	-11145
crete	-11146
▁Down	-11147
▁White	-11148
factory	-11149
Standard	-11150
listener	-11151
question	-11152
▁authors	-11153
stitution	-11154
中期	-11155
会被	-11156
余人	-11157
凤凰	-11158
嘉义	-11159
地中	-11160
已被	-11161
布政	-11162
性格	-11163
总会	-11164
特定	-11165
的马	-11166
示范	-11167
身上	-11168
发动机	-11169
的关系	-11170
SERV	-11171
Tuya	-11172
norm	-11173
▁flat	-11174
▁pret	-11175
▁Black	-11176
▁Profe	-11177
▁Smith	-11178
Editing	-11179
changed	-11180
ologist	-11181
validate	-11182
▁reached	-11183
▁Technology	-11184
▁ValueError	-11185
WellSetDouble	-11186
,1	-11187
▁八	-11188
▁德	-11189
伦斯	-11190
俄国	-11191
制品	-11192
圣殿	-11193
格勒	-11194
河畔	-11195
济南	-11196
火山	-11197
空中	-11198
纳入	-11199
认可	-11200
证实	-11201
郎中	-11202
都被	-11203
/">	-11204
Ins	-11205
REQ	-11206
ped	-11207
▁Pl	-11208
制作人	-11209
名古屋	-11210
篇小说	-11211
ench	-11212
▁Lou	-11213
▁cls	-11214
▁tox	-11215
足球联赛	-11216
▁Inst	-11217
▁laws	-11218
▁pest	-11219
邮政编码为	-11220
amount	-11221
bezier	-11222
orient	-11223
buttons	-11224
▁branch	-11225
▁emphas	-11226
▁collected	-11227
▁resulting	-11228
▁determined	-11229
主力	-11230
也可	-11231
做出	-11232
同步	-11233
广岛	-11234
开业	-11235
景点	-11236
营养	-11237
途中	-11238
▁3;	-11239
他们在	-11240
是台湾	-11241
1960	-11242
MODE	-11243
READ	-11244
When	-11245
eces	-11246
live	-11247
ruby	-11248
▁nhn	-11249
>1-10	-11250
pring	-11251
▁Fore	-11252
▁Lord	-11253
接壤的市镇	-11254
Common	-11255
agnost	-11256
helper	-11257
manent	-11258
ordion	-11259
▁Using	-11260
▁notes	-11261
▁serve	-11262
isation	-11263
▁starts	-11264
。......	-11265
ximately	-11266
▁exactly	-11267
▁minimum	-11268
className	-11269
▁textarea	-11270
getElement	-11271
▁Alzheimer	-11272
▁compounds	-11273
▁literature	-11274
Sk	-11275
ji	-11276
pa	-11277
▁加	-11278
▁拉	-11279
おお	-11280
乐队	-11281
们的	-11282
司机	-11283
哈拉	-11284
均为	-11285
垒打	-11286
崇祯	-11287
德尔	-11288
志愿	-11289
意志	-11290
扩建	-11291
新建	-11292
查理	-11293
波特	-11294
物品	-11295
癜风	-11296
综艺	-11297
质的	-11298
转换	-11299
ARS	-11300
Rad	-11301
▁#6	-11302
▁UK	-11303
▁ss	-11304
是因为	-11305
机器人	-11306
的电影	-11307
研究生	-11308
Pack	-11309
libs	-11310
▁10,	-11311
▁Day	-11312
▁lat	-11313
▁xml	-11314
ocket	-11315
▁Find	-11316
▁song	-11317
icator	-11318
▁Point	-11319
▁fract	-11320
▁master	-11321
▁mother	-11322
Directory	-11323
▁estimated	-11324
▁financial	-11325
▁relatively	-11326
任期	-11327
分行	-11328
占据	-11329
原来	-11330
变形	-11331
潜艇	-11332
萨尔	-11333
++;	-11334
och	-11335
rin	-11336
创始人	-11337
相当于	-11338
苏维埃	-11339
()">	-11340
625)	-11341
:00(	-11342
otor	-11343
▁]},	-11344
▁req	-11345
Topic	-11346
crumb	-11347
share	-11348
▁coal	-11349
master	-11350
▁Start	-11351
▁coming	-11352
▁parsed	-11353
▁serial	-11354
mmutable	-11355
▁Francisco	-11356
GroupLayout	-11357
▁characteristics	-11358
ро	-11359
则为	-11360
制定	-11361
导弹	-11362
尼克	-11363
恐怖	-11364
撰写	-11365
环保	-11366
短暂	-11367
阅读	-11368
陷入	-11369
1⁄2	-11370
asp	-11371
hma	-11372
kin	-11373
oms	-11374
rab	-11375
▁])	-11376
▁ho	-11377
▁此外	-11378
ATTR	-11379
hell	-11380
rael	-11381
▁电视剧	-11382
▁Drop	-11383
。2007	-11384
compute	-11385
▁Author	-11386
▁remark	-11387
TuyaData	-11388
carousel	-11389
notation	-11390
▁attract	-11391
▁discuss	-11392
▁workers	-11393
constants	-11394
selection	-11395
▁suggests	-11396
interfaces	-11397
▁computers	-11398
▁organization	-11399
Te	-11400
▁美	-11401
三国	-11402
于此	-11403
并由	-11404
战士	-11405
有著	-11406
流动	-11407
海关	-11408
珊瑚	-11409
策略	-11410
缅甸	-11411
职工	-11412
评审	-11413
逐步	-11414
urb	-11415
▁cv	-11416
▁ps	-11417
届全国	-11418
山西省	-11419
是一座	-11420
)));	-11421
apes	-11422
aria	-11423
drag	-11424
week	-11425
▁HIV	-11426
▁amb	-11427
apers	-11428
bytes	-11429
itors	-11430
jango	-11431
▁loop	-11432
▁sick	-11433
▁Henry	-11434
▁exhib	-11435
between	-11436
neutral	-11437
outline	-11438
refresh	-11439
▁Commit	-11440
▁physic	-11441
▁pytest	-11442
Bookmark	-11443
nowledge	-11444
ologists	-11445
previous	-11446
▁balance	-11447
▁foreign	-11448
▁Students	-11449
▁creation	-11450
▁properly	-11451
▁indicating	-11452
)]	-11453
,5	-11454
Sy	-11455
对其	-11456
彰化	-11457
情节	-11458
成年	-11459
沿海	-11460
海域	-11461
电脑	-11462
直径	-11463
资助	-11464
lim	-11465
uda	-11466
▁38	-11467
▁5.	-11468
▁Cy	-11469
同时也	-11470
总面积	-11471
cker	-11472
poch	-11473
Usage	-11474
which	-11475
▁Both	-11476
▁Life	-11477
alysis	-11478
fields	-11479
▁court	-11480
▁effic	-11481
▁enemy	-11482
▁faith	-11483
▁freed	-11484
▁mouse	-11485
▁steel	-11486
的人口数量为	-11487
▁Amazon	-11488
▁Promise	-11489
▁finding	-11490
▁southern	-11491
connection	-11492
parameters	-11493
▁infection	-11494
▁regarding	-11495
▁instrument	-11496
▁近	-11497
公顷	-11498
委托	-11499
布局	-11500
指数	-11501
而非	-11502
青春	-11503
(45	-11504
▁85	-11505
▁评价	-11506
东京都	-11507
事务所	-11508
女演员	-11509
范围内	-11510
374。	-11511
Mult	-11512
hook	-11513
▁Rus	-11514
▁www	-11515
front	-11516
icode	-11517
▁1995	-11518
▁1996	-11519
▁rows	-11520
▁sand	-11521
keeper	-11522
android	-11523
▁enumer	-11524
▁player	-11525
▁organic	-11526
▁Rockwell	-11527
memberNameLink	-11528
,7	-11529
,9	-11530
GE	-11531
▁总	-11532
主体	-11533
医药	-11534
史蒂	-11535
各自	-11536
婴儿	-11537
导师	-11538
情报	-11539
村民	-11540
通讯	-11541
附加	-11542
Xml	-11543
ato	-11544
sdk	-11545
▁'#	-11546
基金会	-11547
巨大的	-11548
白癜风	-11549
的位置	-11550
的名字	-11551
被视为	-11552
[1],	-11553
▁0),	-11554
▁Att	-11555
▁Det	-11556
Expert	-11557
Mapper	-11558
ceeded	-11559
browser	-11560
messages	-11561
▁stories	-11562
▁campaign	-11563
▁strength	-11564
IA	-11565
▁歌	-11566
▁而	-11567
主动	-11568
从此	-11569
火车	-11570
知府	-11571
,10	-11572
Clo	-11573
SSF	-11574
▁##	-11575
出现了	-11576
市中心	-11577
="{{	-11578
amma	-11579
href	-11580
iple	-11581
lers	-11582
rian	-11583
▁End	-11584
▁Sil	-11585
塞尔维亚	-11586
shift	-11587
▁Dist	-11588
▁Hall	-11589
▁Miss	-11590
▁anti	-11591
。2011	-11592
▁Greek	-11593
▁alert	-11594
▁phase	-11595
▁truth	-11596
gorithm	-11597
▁Result	-11598
▁Review	-11599
▁Network	-11600
▁mention	-11601
▁diseases	-11602
▁biological	-11603
5)	-11604
▁何	-11605
互动	-11606
五十	-11607
使其	-11608
值得	-11609
军人	-11610
军在	-11611
分区	-11612
分数	-11613
单一	-11614
原创	-11615
号为	-11616
回合	-11617
妇女	-11618
有着	-11619
江南	-11620
电池	-11621
省和	-11622
石油	-11623
龙江	-11624
-30	-11625
iro	-11626
▁#0	-11627
▁6.	-11628
▁虽然	-11629
。</	-11630
而不是	-11631
emit	-11632
oler	-11633
pink	-11634
▁2.5	-11635
▁SQL	-11636
▁cir	-11637
0000_	-11638
市镇编码为	-11639
▁fight	-11640
▁metal	-11641
Feedback	-11642
▁Context	-11643
▁contemp	-11644
▁Standard	-11645
>\	-11646
▁苏	-11647
上帝	-11648
专用	-11649
亚种	-11650
前进	-11651
原则	-11652
垂直	-11653
席位	-11654
支线	-11655
改进	-11656
杀害	-11657
气体	-11658
河谷	-11659
法案	-11660
洋基	-11661
资讯	-11662
边境	-11663
透露	-11664
ddd	-11665
大西洋	-11666
时区为	-11667
江苏省	-11668
281,	-11669
3000	-11670
▁Mal	-11671
▁vul	-11672
COUNT	-11673
▁Plan	-11674
▁errn	-11675
▁vary	-11676
levant	-11677
▁reset	-11678
Cluster	-11679
collect	-11680
counter	-11681
species	-11682
▁wealth	-11683
▁dimension	-11684
▁officials	-11685
▁president	-11686
credentials	-11687
▁significantly	-11688
.'	-11689
》、	-11690
不敌	-11691
低于	-11692
卡斯	-11693
原为	-11694
在新	-11695
好友	-11696
性别	-11697
扩张	-11698
抑制	-11699
报纸	-11700
摧毁	-11701
改建	-11702
更是	-11703
观测	-11704
阳县	-11705
鼓励	-11706
'].	-11707
+01	-11708
3',	-11709
WYG	-11710
ein	-11711
ora	-11712
▁"-	-11713
▁MO	-11714
始建于	-11715
尼西亚	-11716
的支持	-11717
PORT	-11718
iers	-11719
look	-11720
▁0.6	-11721
SIWYG	-11722
osing	-11723
upper	-11724
▁Gran	-11725
amazon	-11726
enable	-11727
inction	-11728
xdocHdr	-11729
▁belief	-11730
▁remote	-11731
Password	-11732
▁mapping	-11733
properties	-11734
▁copyright	-11735
▁provision	-11736
!!	-11737
"&	-11738
CN	-11739
他和	-11740
塔基	-11741
士顿	-11742
头部	-11743
报名	-11744
时刻	-11745
暂时	-11746
替代	-11747
清楚	-11748
等级	-11749
累计	-11750
通信	-11751
遭遇	-11752
首位	-11753
高雄	-11754
39;	-11755
:13	-11756
UTF	-11757
ulf	-11758
大规模	-11759
的所有	-11760
葡萄酒	-11761
(200	-11762
Game	-11763
sand	-11764
thew	-11765
▁Ala	-11766
▁Dem	-11767
▁voc	-11768
或旧市镇	-11769
dates	-11770
▁Fire	-11771
▁Sing	-11772
jquery	-11773
▁genes	-11774
▁logic	-11775
▁define	-11776
▁giving	-11777
时的人口数量为	-11778
security	-11779
▁missing	-11780
▁apparent	-11781
▁prepared	-11782
▁thousands	-11783
▁其	-11784
▁爱	-11785
不明	-11786
体长	-11787
分裂	-11788
合理	-11789
布朗	-11790
手段	-11791
敌人	-11792
整合	-11793
月份	-11794
月底	-11795
末期	-11796
杰出	-11797
理学	-11798
登上	-11799
迁移	-11800
领地	-11801
Cap	-11802
ems	-11803
inf	-11804
neg	-11805
pat	-11806
▁0%	-11807
▁CA	-11808
东北部	-11809
建筑物	-11810
足球队	-11811
USER	-11812
exas	-11813
meth	-11814
▁Saf	-11815
亚历山大	-11816
短期大学	-11817
2046,	-11818
Power	-11819
hopal	-11820
▁500;	-11821
▁lock	-11822
▁{...	-11823
▁fresh	-11824
convert	-11825
▁easier	-11826
Executor	-11827
quential	-11828
▁subsequ	-11829
▁intended	-11830
▁emissions	-11831
▁increases	-11832
▁positions	-11833
▁processes	-11834
▁techniques	-11835
▁programming	-11836
▁construction	-11837
▁DirichletGroup	-11838
!”	-11839
PP	-11840
_2	-11841
ye	-11842
~~	-11843
▁明	-11844
东侧	-11845
体现	-11846
已于	-11847
打败	-11848
解脱	-11849
起义	-11850
选出	-11851
里奥	-11852
高铁	-11853
2</	-11854
:25	-11855
AWS	-11856
GIN	-11857
OUT	-11858
▁Pu	-11859
了他的	-11860
High	-11861
Rect	-11862
plus	-11863
▁Law	-11864
▁dro	-11865
▁tsd	-11866
essed	-11867
irmed	-11868
lider	-11869
multi	-11870
prise	-11871
▁imag	-11872
finder	-11873
plugin	-11874
▁#000;	-11875
▁lists	-11876
▁occup	-11877
Details	-11878
▁Modern	-11879
▁county	-11880
Dropdown	-11881
identity	-11882
▁amounts	-11883
▁learned	-11884
▁obvious	-11885
classmlir	-11886
▁greatest	-11887
▁straight	-11888
▁operating	-11889
▁eventually	-11890
_3	-11891
他也	-11892
写作	-11893
商店	-11894
城墙	-11895
掌握	-11896
显著	-11897
桃园	-11898
流传	-11899
竣工	-11900
50%	-11901
AND	-11902
cia	-11903
har	-11904
oke	-11905
▁da	-11906
传统的	-11907
年夏季	-11908
axis	-11909
calc	-11910
cles	-11911
ulum	-11912
▁sin	-11913
罗马帝国	-11914
("../	-11915
utter	-11916
vised	-11917
▁Mart	-11918
▁fine	-11919
izable	-11920
▁2011.	-11921
▁Plato	-11922
▁therm	-11923
▁watch	-11924
squares	-11925
▁permit	-11926
sequence	-11927
▁becoming	-11928
▁newspace	-11929
getElementById	-11930
。。	-11931
保加	-11932
向北	-11933
本作	-11934
死于	-11935
萨斯	-11936
起源	-11937
靠近	-11938
10.	-11939
APP	-11940
▁fn	-11941
▁概要	-11942
交响曲	-11943
任天堂	-11944
最高的	-11945
集团军	-11946
驱逐舰	-11947
blem	-11948
feed	-11949
">(</	-11950
▁Camp	-11951
▁func	-11952
▁harm	-11953
▁issu	-11954
▁wife	-11955
。2019	-11956
Future	-11957
volume	-11958
▁chief	-11959
▁round	-11960
raining	-11961
▁elimin	-11962
redirect	-11963
▁Through	-11964
▁consequ	-11965
▁万	-11966
▁元	-11967
▁无	-11968
业余	-11969
人生	-11970
利润	-11971
尼古	-11972
带有	-11973
开幕	-11974
的热	-11975
种类	-11976
考察	-11977
马斯	-11978
IST	-11979
Wal	-11980
__,	-11981
ska	-11982
市政府	-11983
效力于	-11984
立方米	-11985
选区为	-11986
1981	-11987
Edit	-11988
otal	-11989
uate	-11990
▁Hol	-11991
▁pun	-11992
Arial	-11993
shall	-11994
uries	-11995
▁gain	-11996
▁synt	-11997
所属的省级	-11998
lipsis	-11999
medium	-12000
region	-12001
▁meant	-12002
▁modul	-12003
▁outer	-12004
+01:00、	-12005
+02:00(	-12006
History	-12007
udience	-12008
▁blocks	-12009
▁enable	-12010
facebook	-12011
▁depends	-12012
collapsed	-12013
▁restrict	-12014
▁inherited	-12015
▁convention	-12016
▁hypothesis	-12017
HS	-12018
▁赵	-12019
中最	-12020
仅有	-12021
信托	-12022
冷却	-12023
天使	-12024
常常	-12025
座堂	-12026
派的	-12027
红花	-12028
老虎	-12029
自主	-12030
获奖	-12031
落实	-12032
长安	-12033
预防	-12034
192	-12035
ULL	-12036
ees	-12037
rtl	-12038
seq	-12039
▁分布	-12040
交流道	-12041
取得了	-12042
年出版	-12043
有许多	-12044
该省份	-12045
ahan	-12046
fire	-12047
▁Sim	-12048
▁dig	-12049
▁fol	-12050
▁mac	-12051
ouder	-12052
ourag	-12053
super	-12054
▁Penn	-12055
▁Tree	-12056
Failed	-12057
▁chart	-12058
Connect	-12059
DEFAULT	-12060
manager	-12061
▁compre	-12062
▁explan	-12063
▁socket	-12064
▁loading	-12065
所属的省级选区为	-12066
Constants	-12067
generator	-12068
▁intellectual	-12069
FC	-12070
▁月	-12071
下一	-12072
你的	-12073
共享	-12074
化工	-12075
各国	-12076
国道	-12077
天的	-12078
普拉	-12079
清洗	-12080
灭绝	-12081
真人	-12082
莱茵	-12083
起点	-12084
长子	-12085
马力	-12086
鱼雷	-12087
:11	-12088
SQL	-12089
arp	-12090
cli	-12091
tle	-12092
▁早年	-12093
在那里	-12094
大量的	-12095
相同的	-12096
prob	-12097
zure	-12098
▁1.2	-12099
▁Pope	-12100
define	-12101
havior	-12102
loaded	-12103
▁decor	-12104
Comment	-12105
▁Direct	-12106
▁allerg	-12107
Security	-12108
▁causing	-12109
▁choices	-12110
▁resolve	-12111
▁Abstract	-12112
▁accident	-12113
▁strategy	-12114
▁efficient	-12115
,4	-12116
,8	-12117
8。	-12118
OT	-12119
RC	-12120
rb	-12121
三大	-12122
另有	-12123
监狱	-12124
研制	-12125
称作	-12126
组长	-12127
说是	-12128
车道	-12129
迁徙	-12130
龙类	-12131
"/>	-12132
123	-12133
▁Hy	-12134
十二月	-12135
演唱会	-12136
Rout	-12137
ered	-12138
fast	-12139
ffee	-12140
flag	-12141
hand	-12142
ping	-12143
▁env	-12144
Stats	-12145
rupted	-12146
▁inset	-12147
gallery	-12148
preview	-12149
unities	-12150
中国人民解放军	-12151
altColor	-12152
▁Library	-12153
▁platform	-12154
▁limestone	-12155
ClassLoader	-12156
▁equivalent	-12157
▁mathematics	-12158
▁populations	-12159
2(	-12160
5>	-12161
二战	-12162
户部	-12163
承担	-12164
曾于	-12165
格尔	-12166
法庭	-12167
游击	-12168
燃料	-12169
监制	-12170
紧急	-12171
途径	-12172
里克	-12173
钢铁	-12174
长达	-12175
III	-12176
西南部	-12177
__);	-12178
▁Lim	-12179
Cells	-12180
roles	-12181
▁leaf	-12182
ITimer	-12183
省的一个市镇	-12184
▁Bhopal	-12185
▁Python	-12186
▁modify	-12187
selector	-12188
▁Chinese	-12189
▁Special	-12190
▁showing	-12191
▁contrast	-12192
▁measured	-12193
▁medicine	-12194
▁=========	-12195
▁opportunity	-12196
:6	-12197
]*	-12198
▁外	-12199
之处	-12200
乐器	-12201
回国	-12202
国小	-12203
幸福	-12204
庆祝	-12205
态度	-12206
抵抗	-12207
本线	-12208
正面	-12209
流量	-12210
淡水	-12211
礼拜	-12212
米亚	-12213
船只	-12214
赛中	-12215
送到	-12216
青海	-12217
--&	-12218
240	-12219
csv	-12220
how	-12221
▁-3	-12222
▁42	-12223
▁mb	-12224
在内的	-12225
科大学	-12226
负责人	-12227
Meta	-12228
relu	-12229
▁cro	-12230
eeper	-12231
lfred	-12232
▁gest	-12233
iteral	-12234
▁Psych	-12235
▁solar	-12236
regular	-12237
▁Engine	-12238
ceedings	-12239
products	-12240
▁columns	-12241
▁integer	-12242
▁overall	-12243
▁indicate	-12244
▁selector	-12245
▁formation	-12246
▁assignment	-12247
▁placeholder	-12248
▁conservation	-12249
LL	-12250
bi	-12251
叙述	-12252
后于	-12253
度假	-12254
摇滚	-12255
新人	-12256
新增	-12257
永远	-12258
沿线	-12259
真菌	-12260
神的	-12261
称呼	-12262
视觉	-12263
诞生	-12264
▁Mu	-12265
事实上	-12266
全垒打	-12267
游戏的	-12268
1950	-12269
Tags	-12270
icky	-12271
rees	-12272
▁Bur	-12273
▁Pop	-12274
世界大赛	-12275
▁1979	-12276
▁huge	-12277
▁lang	-12278
▁surg	-12279
cestor	-12280
drawer	-12281
istent	-12282
iveness	-12283
▁Robert	-12284
▁mostly	-12285
Interval	-12286
▁execute	-12287
▁Medicine	-12288
▁occurred	-12289
▁educational	-12290
▁transaction	-12291
(*	-12292
▁м	-12293
▁松	-12294
区分	-12295
司职	-12296
强度	-12297
征服	-12298
招生	-12299
是不	-12300
群众	-12301
西里	-12302
gel	-12303
Cred	-12304
sass	-12305
spel	-12306
建筑面积	-12307
grees	-12308
iring	-12309
ridge	-12310
▁Back	-12311
▁rise	-12312
。2006	-12313
。2012	-12314
anchor	-12315
ceived	-12316
llegal	-12317
monaco	-12318
purple	-12319
secret	-12320
▁Texas	-12321
▁cards	-12322
▁ocean	-12323
▁route	-12324
Physics	-12325
▁Access	-12326
▁Client	-12327
Previous	-12328
Required	-12329
▁teacher	-12330
▁allowing	-12331
▁Committee	-12332
▁discovery	-12333
▁expressed	-12334
4/	-12335
ão	-12336
▁黑	-12337
中将	-12338
准确	-12339
创意	-12340
参数	-12341
客串	-12342
就在	-12343
工商	-12344
并被	-12345
理查	-12346
管道	-12347
粒子	-12348
语的	-12349
轰炸	-12350
过的	-12351
道德	-12352
零售	-12353
首歌	-12354
马丁	-12355
0</	-12356
ASE	-12357
REG	-12358
▁'@	-12359
▁>&	-12360
。17	-12361
最早的	-12362
约瑟夫	-12363
ajax	-12364
▁(1)	-12365
▁Sen	-12366
ctors	-12367
haser	-12368
oxide	-12369
▁trou	-12370
▁}}</	-12371
。2018	-12372
corner	-12373
▁Learn	-12374
▁spent	-12375
(-50%);	-12376
Counter	-12377
toolbar	-12378
▁adding	-12379
Converter	-12380
LowerCase	-12381
▁combined	-12382
ListResponse	-12383
▁consumption	-12384
▁institutions	-12385
%2	-12386
0_	-12387
OP	-12388
专科	-12389
停车	-12390
克雷	-12391
印刷	-12392
场的	-12393
奖章	-12394
斯卡	-12395
格里	-12396
经由	-12397
获胜	-12398
象棋	-12399
连载	-12400
105	-12401
USE	-12402
asy	-12403
▁fr	-12404
▁参考	-12405
也没有	-12406
广州市	-12407
微生物	-12408
;--&	-12409
Dist	-12410
More	-12411
Step	-12412
anks	-12413
roof	-12414
stic	-12415
▁360	-12416
▁Ext	-12417
sumer	-12418
▁male	-12419
。2009	-12420
▁Every	-12421
▁Study	-12422
▁drive	-12423
▁theme	-12424
▁belong	-12425
▁typeof	-12426
TestCase	-12427
▁disaster	-12428
▁remained	-12429
resultList	-12430
▁dangerous	-12431
▁technique	-12432
OwnProperty	-12433
▁principles	-12434
▁structures	-12435
▁technologies	-12436
AX	-12437
_(	-12438
▁宋	-12439
习惯	-12440
书中	-12441
前后	-12442
发育	-12443
声明	-12444
天后	-12445
奖金	-12446
护卫	-12447
探测	-12448
线上	-12449
12,	-12450
;*/	-12451
Eng	-12452
IDE	-12453
Pri	-12454
▁特征	-12455
FILE	-12456
atur	-12457
irls	-12458
▁Mor	-12459
▁plt	-12460
保加利亚	-12461
高等学校	-12462
ARRAY	-12463
usage	-12464
▁acqu	-12465
。2015	-12466
expand	-12467
timing	-12468
▁facts	-12469
▁heard	-12470
▁lived	-12471
▁seven	-12472
▁latest	-12473
Warnings	-12474
▁Richard	-12475
▁alcohol	-12476
argsBatch	-12477
▁division	-12478
▁documents	-12479
GB	-12480
南极	-12481
友好	-12482
对阵	-12483
将于	-12484
弗雷	-12485
智慧	-12486
江户	-12487
演艺	-12488
现为	-12489
穿越	-12490
级别	-12491
=""	-12492
▁#7	-12493
▁BE	-12494
中国的	-12495
的部分	-12496
FORE	-12497
onic	-12498
▁Ter	-12499
▁bra	-12500
▁Line	-12501
abetes	-12502
oudera	-12503
▁merge	-12504
Visible	-12505
erences	-12506
filters	-12507
latform	-12508
▁Report	-12509
▁limits	-12510
▁prefix	-12511
▁writer	-12512
rowColor	-12513
▁Central	-12514
▁univers	-12515
▁distingu	-12516
▁universe	-12517
▁mechanism	-12518
InputStream	-12519
destination	-12520
Hz	-12521
La	-12522
NG	-12523
哥哥	-12524
大选	-12525
机枪	-12526
真的	-12527
血液	-12528
足够	-12529
输出	-12530
边为	-12531
采访	-12532
阿里	-12533
高原	-12534
130	-12535
RED	-12536
[2]	-12537
▁AR	-12538
的情况	-12539
致力于	-12540
[0])	-12541
bing	-12542
igen	-12543
oned	-12544
▁0.9	-12545
▁Exp	-12546
▁hur	-12547
▁svg	-12548
amber	-12549
eties	-12550
lated	-12551
▁Asia	-12552
。2013	-12553
Editor	-12554
Keeper	-12555
Scroll	-12556
ndrome	-12557
▁Model	-12558
▁Israel	-12559
▁Social	-12560
▁attach	-12561
▁demand	-12562
▁happen	-12563
▁signal	-12564
▁benefit	-12565
▁covered	-12566
▁warming	-12567
accordion	-12568
▁authority	-12569
▁experiment	-12570
▁independent	-12571
''	-12572
(@	-12573
(《	-12574
▁最	-12575
他人	-12576
伊朗	-12577
冠状	-12578
女孩	-12579
守备	-12580
山手	-12581
师团	-12582
平安	-12583
枢机	-12584
沉没	-12585
边的	-12586
迪亚	-12587
高宗	-12588
DNA	-12589
moe	-12590
▁'\	-12591
▁Ca	-12592
云南省	-12593
发行的	-12594
唯一的	-12595
战斗机	-12596
是一家	-12597
TEXT	-12598
fake	-12599
rypt	-12600
zeta	-12601
iliar	-12602
▁edge	-12603
▁fair	-12604
▁liqu	-12605
▁roll	-12606
▁soci	-12607
Arcade	-12608
▁doubt	-12609
▁minor	-12610
该省份为法国	-12611
outputs	-12612
▁circum	-12613
▁decode	-12614
▁inform	-12615
▁layout	-12616
Database	-12617
Partition	-12618
▁identity	-12619
▁dimensions	-12620
RA	-12621
▁唐	-12622
、2	-12623
一职	-12624
他为	-12625
以便	-12626
以此	-12627
会计	-12628
初年	-12629
升格	-12630
大正	-12631
干燥	-12632
排列	-12633
接收	-12634
新城	-12635
本土	-12636
沙漠	-12637
较高	-12638
遗传	-12639
.*;	-12640
[:,	-12641
cdp	-12642
cfg	-12643
▁曾祖	-12644
候选人	-12645
司令部	-12646
999;	-12647
IDTH	-12648
leto	-12649
onom	-12650
vity	-12651
▁Mer	-12652
▁Pan	-12653
▁Sam	-12654
▁Tod	-12655
人口普查	-12656
azure	-12657
bread	-12658
esome	-12659
tests	-12660
tomic	-12661
▁1992	-12662
arator	-12663
letion	-12664
▁Frank	-12665
▁Guide	-12666
▁delay	-12667
▁purch	-12668
▁shell	-12669
visited	-12670
▁Change	-12671
▁Source	-12672
▁encode	-12673
▁inject	-12674
▁shadow	-12675
▁brother	-12676
▁despite	-12677
▁platoon	-12678
▁studied	-12679
▁Canadian	-12680
▁Governor	-12681
▁concerns	-12682
▁planning	-12683
▁challenge	-12684
▁connected	-12685
▁instances	-12686
/"	-12687
GF	-12688
PK	-12689
Py	-12690
▁不	-12691
▁奥	-12692
▁若	-12693
一百	-12694
化为	-12695
商务	-12696
大连	-12697
战车	-12698
无论	-12699
的总	-12700
美人	-12701
美的	-12702
自我	-12703
航海	-12704
英镑	-12705
还在	-12706
预算	-12707
众议院	-12708
赢得了	-12709
avai	-12710
cnnW	-12711
erse	-12712
omin	-12713
ragg	-12714
▁Aut	-12715
▁Its	-12716
clone	-12717
getId	-12718
raise	-12719
▁Flor	-12720
▁conn	-12721
▁mice	-12722
▁repo	-12723
▁Final	-12724
▁Sever	-12725
▁Sound	-12726
▁brief	-12727
Columns	-12728
▁Second	-12729
▁Federal	-12730
▁faculty	-12731
▁commonly	-12732
▁decrease	-12733
▁phenomen	-12734
▁correctly	-12735
▁tradition	-12736
▁challenges	-12737
▁cellpadding	-12738
▁combination	-12739
▁automatically	-12740
ho	-12741
ko	-12742
▁五	-12743
▁徐	-12744
▁있	-12745
个体	-12746
从未	-12747
例子	-12748
圣诞	-12749
如同	-12750
季度	-12751
成人	-12752
担心	-12753
桂林	-12754
洛克	-12755
煤矿	-12756
画面	-12757
站厅	-12758
著有	-12759
远征	-12760
重返	-12761
长大	-12762
阳光	-12763
-22	-12764
ipe	-12765
▁"3	-12766
▁3)	-12767
▁md	-12768
的国家	-12769
2023	-12770
Pres	-12771
foot	-12772
ista	-12773
that	-12774
▁"",	-12775
▁LOG	-12776
▁Std	-12777
▁smo	-12778
nergy	-12779
▁$('.	-12780
▁Jews	-12781
▁susp	-12782
ialect	-12783
▁absor	-12784
▁login	-12785
▁strug	-12786
Messages	-12787
▁leaders	-12788
▁outbreak	-12789
▁household	-12790
▁Development	-12791
▁professional	-12792
+8	-12793
—8	-12794
个性	-12795
停靠	-12796
吉林	-12797
损伤	-12798
法规	-12799
超越	-12800
这项	-12801
追求	-12802
han	-12803
▁国家	-12804
东南部	-12805
的一条	-12806
维生素	-12807
设计的	-12808
()))	-12809
Void	-12810
dump	-12811
such	-12812
▁Mag	-12813
▁vit	-12814
icing	-12815
ivery	-12816
▁1987	-12817
▁Like	-12818
▁cast	-12819
▁flag	-12820
▁lung	-12821
▁magn	-12822
。2017	-12823
▁roles	-12824
▁stret	-12825
▁browse	-12826
▁stable	-12827
Suppress	-12828
▁comments	-12829
▁reducing	-12830
▁substant	-12831
constructor	-12832
CV	-12833
NE	-12834
之际	-12835
交叉	-12836
以西	-12837
凭借	-12838
多人	-12839
太后	-12840
始终	-12841
展现	-12842
春阳	-12843
浓度	-12844
现存	-12845
都不	-12846
重组	-12847
铃木	-12848
队员	-12849
140	-12850
▁SE	-12851
▁du	-12852
不得不	-12853
成立了	-12854
政府的	-12855
Exec	-12856
Move	-12857
umor	-12858
▁suc	-12859
Items	-12860
PTION	-12861
duled	-12862
NavBar	-12863
Socket	-12864
▁Admin	-12865
▁Where	-12866
▁advoc	-12867
osexual	-12868
▁PROVID	-12869
▁acceler	-12870
▁Response	-12871
▁colleges	-12872
▁director	-12873
+7	-12874
WN	-12875
hd	-12876
传奇	-12877
做好	-12878
克鲁	-12879
已知	-12880
彻底	-12881
德的	-12882
房间	-12883
竞选	-12884
补充	-12885
论坛	-12886
高于	-12887
EST	-12888
TAC	-12889
▁LI	-12890
▁Sk	-12891
世界的	-12892
威尼斯	-12893
政治家	-12894
旗下的	-12895
染色体	-12896
电影节	-12897
阿尔卑	-12898
领导人	-12899
Show	-12900
lint	-12901
prep	-12902
明治三十	-12903
超级联赛	-12904
floor	-12905
▁Such	-12906
。2008	-12907
extend	-12908
▁Power	-12909
▁cycle	-12910
▁legal	-12911
▁nutri	-12912
Windows	-12913
ributed	-12914
windows	-12915
▁anyone	-12916
▁career	-12917
▁follows	-12918
▁warning	-12919
▁incorpor	-12920
attributes	-12921
▁Australia	-12922
hasOwnProperty	-12923
▁凯	-12924
▁경	-12925
一词	-12926
上午	-12927
传动	-12928
农民	-12929
加热	-12930
哈佛	-12931
在中	-12932
地上	-12933
塔尔	-12934
审查	-12935
法令	-12936
的四	-12937
苏州	-12938
菩萨	-12939
配备	-12940
长沙	-12941
面向	-12942
-1,	-12943
Hub	-12944
cam	-12945
▁gr	-12946
▁作品	-12947
东南亚	-12948
名进士	-12949
大将军	-12950
很大的	-12951
美国的	-12952
董事长	-12953
连续剧	-12954
rane	-12955
ummy	-12956
▁Bel	-12957
▁sen	-12958
poses	-12959
▁drag	-12960
▁foss	-12961
▁kept	-12962
mitive	-12963
▁looks	-12964
▁panel	-12965
▁ratio	-12966
setText	-12967
▁oxygen	-12968
▁slight	-12969
▁nations	-12970
▁unknown	-12971
▁protocol	-12972
▁vehicles	-12973
▁concerned	-12974
▁extremely	-12975
▁professor	-12976
▁Government	-12977
Av	-12978
但因	-12979
公会	-12980
办学	-12981
子女	-12982
少将	-12983
提及	-12984
治理	-12985
物浦	-12986
纳粹	-12987
翡翠	-12988
苏丹	-12989
荣获	-12990
财富	-12991
输入	-12992
长官	-12993
▁背景	-12994
的同时	-12995
诺贝尔	-12996
6666	-12997
LINK	-12998
Play	-12999
▁mel	-13000
▁san	-13001
arter	-13002
▁Have	-13003
▁hear	-13004
▁purs	-13005
ceptor	-13006
iatric	-13007
▁Order	-13008
▁heavy	-13009
▁thick	-13010
WYSIWYG	-13011
release	-13012
visible	-13013
▁editor	-13014
▁marked	-13015
▁obtained	-13016
▁supports	-13017
▁username	-13018
▁protection	-13019
SuppressWarnings	-13020
ón	-13021
不知	-13022
中式	-13023
会试	-13024
区别	-13025
图像	-13026
就有	-13027
开启	-13028
担当	-13029
斯林	-13030
曾是	-13031
特拉	-13032
相连	-13033
种族	-13034
观看	-13035
购物	-13036
赛的	-13037
追溯	-13038
风景	-13039
230	-13040
Asm	-13041
ILE	-13042
ags	-13043
iot	-13044
▁世界	-13045
发现的	-13046
增加了	-13047
物理学	-13048
独特的	-13049
▁cfg	-13050
▁ens	-13051
▁ves	-13052
春阳文库	-13053
()));	-13054
arant	-13055
oNode	-13056
ratic	-13057
▁1991	-13058
▁Call	-13059
▁Last	-13060
▁scen	-13061
▁zeta	-13062
latest	-13063
Profile	-13064
Regular	-13065
▁celebr	-13066
cloudera	-13067
datalake	-13068
▁builder	-13069
▁category	-13070
▁download	-13071
▁everyone	-13072
▁majority	-13073
▁operator	-13074
BigDecimal	-13075
▁resistance	-13076
licationGroup	-13077
=(	-13078
▁孙	-13079
三位	-13080
事情	-13081
副使	-13082
加尔	-13083
各项	-13084
品质	-13085
巴斯	-13086
开办	-13087
支撑	-13088
新疆	-13089
正是	-13090
泰坦	-13091
行人	-13092
识别	-13093
.$$	-13094
3">	-13095
elf	-13096
lig	-13097
uzz	-13098
的地区	-13099
纪录片	-13100
肯塔基	-13101
(1):	-13102
Sync	-13103
best	-13104
cers	-13105
doct	-13106
mbed	-13107
trim	-13108
▁250	-13109
▁978	-13110
▁Neg	-13111
▁sql	-13112
equiv	-13113
found	-13114
rains	-13115
▁Keep	-13116
▁lect	-13117
。2014	-13118
lators	-13119
socket	-13120
▁fruit	-13121
Changed	-13122
subject	-13123
▁asthma	-13124
▁tensor	-13125
▁unless	-13126
lability	-13127
standing	-13128
▁Command	-13129
▁advance	-13130
▁seconds	-13131
itemtitle	-13132
▁Children	-13133
▁encounter	-13134
▁interpret	-13135
Implemented	-13136
fortunately	-13137
▁possibility	-13138
dv	-13139
其在	-13140
办法	-13141
原先	-13142
变为	-13143
号的	-13144
在内	-13145
天满	-13146
战国	-13147
格雷	-13148
气象	-13149
甲组	-13150
的西	-13151
航线	-13152
观音	-13153
通往	-13154
Img	-13155
在一个	-13156
Wifi	-13157
Word	-13158
lymp	-13159
teen	-13160
heast	-13161
obble	-13162
▁Phil	-13163
▁mamm	-13164
▁push	-13165
▁行政区划	-13166
indent	-13167
▁inner	-13168
▁moder	-13169
Library	-13170
▁Alfred	-13171
▁matrix	-13172
▁muscle	-13173
▁speech	-13174
addClass	-13175
download	-13176
▁neighbor	-13177
0000_0000_	-13178
▁ecosystem	-13179
▁explained	-13180
▁remaining	-13181
▁searching	-13182
▁secondary	-13183
▁recommended	-13184
▁埃	-13185
▁清	-13186
书店	-13187
书院	-13188
发达	-13189
可靠	-13190
外观	-13191
天地	-13192
太祖	-13193
平行	-13194
暂停	-13195
色彩	-13196
限定	-13197
首府	-13198
DOM	-13199
cha	-13200
iff	-13201
ilk	-13202
rey	-13203
zoo	-13204
▁TV	-13205
奥斯卡	-13206
目的是	-13207
马德里	-13208
gypt	-13209
▁0.7	-13210
汇丰控股	-13211
iller	-13212
inder	-13213
▁Food	-13214
▁bath	-13215
▁hour	-13216
▁maps	-13217
mentia	-13218
▁plate	-13219
▁risks	-13220
▁sheet	-13221
angular	-13222
ierarch	-13223
▁Howard	-13224
viewport	-13225
▁Matthew	-13226
▁decades	-13227
▁keeping	-13228
supported	-13229
▁consists	-13230
▁conscious	-13231
▁decisions	-13232
5-	-13233
UD	-13234
▁沙	-13235
主管	-13236
交给	-13237
产量	-13238
判断	-13239
后在	-13240
听到	-13241
定期	-13242
当局	-13243
次子	-13244
每次	-13245
法语	-13246
浙东	-13247
等待	-13248
绝对	-13249
翰林	-13250
让人	-13251
这座	-13252
(2)	-13253
,</	-13254
<?>	-13255
lus	-13256
pub	-13257
▁IT	-13258
▁ru	-13259
▁著作	-13260
举办的	-13261
的角色	-13262
适用于	-13263
bose	-13264
elem	-13265
imen	-13266
ulse	-13267
▁AND	-13268
▁Ber	-13269
▁CPU	-13270
▁pan	-13271
阿尔卑斯	-13272
Depth	-13273
bound	-13274
since	-13275
▁Mars	-13276
▁dome	-13277
▁stim	-13278
simple	-13279
tailed	-13280
created	-13281
▁Victor	-13282
▁arrays	-13283
▁router	-13284
igration	-13285
▁decline	-13286
▁sustain	-13287
▁articles	-13288
▁policies	-13289
▁approximately	-13290
▁documentation	-13291
mn	-13292
ре	-13293
▁文	-13294
倾向	-13295
党委	-13296
南侧	-13297
回答	-13298
图片	-13299
手中	-13300
拿破	-13301
接著	-13302
新竹	-13303
是有	-13304
标题	-13305
该校	-13306
起初	-13307
队友	-13308
预备	-13309
首批	-13310
/10	-13311
18;	-13312
]):	-13313
voc	-13314
▁IC	-13315
出来的	-13316
利物浦	-13317
加入了	-13318
台北市	-13319
在英国	-13320
地中海	-13321
庄为邻	-13322
拿破仑	-13323
格拉斯	-13324
expr	-13325
▁ang	-13326
▁Card	-13327
▁Mult	-13328
▁Star	-13329
▁rail	-13330
▁rect	-13331
folder	-13332
ribbon	-13333
tensor	-13334
▁novel	-13335
▁owner	-13336
▁repla	-13337
▁tuple	-13338
confirm	-13339
reverse	-13340
▁compat	-13341
▁consum	-13342
▁famous	-13343
external	-13344
▁explore	-13345
▁happens	-13346
▁managed	-13347
▁outputs	-13348
▁attitude	-13349
▁hundreds	-13350
ographical	-13351
▁efficiency	-13352
setAttribute	-13353
▁communication	-13354
3%	-13355
bc	-13356
bn	-13357
万吨	-13358
之路	-13359
依法	-13360
信长	-13361
司法	-13362
器的	-13363
打破	-13364
按察	-13365
新区	-13366
是最	-13367
晶体	-13368
次的	-13369
灵魂	-13370
病人	-13371
社交	-13372
肿瘤	-13373
节奏	-13374
设于	-13375
雕塑	-13376
鱼类	-13377
sim	-13378
▁..	-13379
▁截至	-13380
总经理	-13381
真正的	-13382
VERS	-13383
ican	-13384
▁Sal	-13385
▁}),	-13386
track	-13387
▁peer	-13388
▁teen	-13389
Empire	-13390
Policy	-13391
iaData	-13392
▁Court	-13393
▁Labor	-13394
SERVICE	-13395
acebook	-13396
elastic	-13397
▁begins	-13398
▁discus	-13399
▁orient	-13400
▁virtual	-13401
▁academic	-13402
▁subjects	-13403
▁emergency	-13404
annotations	-13405
▁interested	-13406
▁sufficient	-13407
▁organizations	-13408
SM	-13409
、3	-13410
乐园	-13411
信用	-13412
凌晨	-13413
前线	-13414
城的	-13415
大气	-13416
夫妇	-13417
好评	-13418
存款	-13419
家乡	-13420
异常	-13421
情绪	-13422
无色	-13423
照顾	-13424
物流	-13425
百姓	-13426
竞技	-13427
英里	-13428
讨伐	-13429
重生	-13430
"].	-13431
bus	-13432
quo	-13433
▁[(	-13434
完整的	-13435
指挥官	-13436
黑龙江	-13437
Home	-13438
Java	-13439
acer	-13440
▁-1)	-13441
▁Del	-13442
▁Ill	-13443
Async	-13444
books	-13445
▁Fish	-13446
▁Free	-13447
▁Land	-13448
▁Path	-13449
▁Shah	-13450
▁pull	-13451
Canvas	-13452
Report	-13453
errors	-13454
iginal	-13455
overty	-13456
▁Louis	-13457
▁moral	-13458
Success	-13459
▁Thomas	-13460
▁faster	-13461
▁pretty	-13462
▁painting	-13463
▁surround	-13464
EditingArea	-13465
collections	-13466
toLowerCase	-13467
▁facilities	-13468
loadbalancer	-13469
▁temperatures	-13470
ja	-13471
▁崔	-13472
了他	-13473
公告	-13474
印象	-13475
在西	-13476
地形	-13477
夏天	-13478
大地	-13479
层为	-13480
师长	-13481
心的	-13482
时尚	-13483
来了	-13484
流浪	-13485
率为	-13486
相反	-13487
肌肉	-13488
股票	-13489
贫困	-13490
部曲	-13491
12.	-13492
=0;	-13493
RES	-13494
▁경우	-13495
。10	-13496
十一月	-13497
工作的	-13498
第一位	-13499
该公司	-13500
CESS	-13501
WORD	-13502
clip	-13503
mann	-13504
▁600	-13505
▁Age	-13506
▁Ann	-13507
▁Fil	-13508
▁Kar	-13509
▁Sou	-13510
▁cer	-13511
EVENT	-13512
ORDER	-13513
▁Sign	-13514
▁Year	-13515
▁coll	-13516
▁corn	-13517
▁join	-13518
▁eating	-13519
▁refers	-13520
▁dioxide	-13521
▁sending	-13522
placement	-13523
▁geometry	-13524
▁numerous	-13525
▁occasion	-13526
▁StdMethod	-13527
Certificate	-13528
▁certificate	-13529
BY	-13530
IX	-13531
Pe	-13532
▁关	-13533
丁堡	-13534
下游	-13535
两国	-13536
人为	-13537
博览	-13538
原作	-13539
复合	-13540
尺寸	-13541
干线	-13542
日于	-13543
水的	-13544
温泉	-13545
版权	-13546
维多	-13547
而来	-13548
iva	-13549
▁"7	-13550
▁#5	-13551
▁(1	-13552
在北京	-13553
天满宫	-13554
市场的	-13555
TIME	-13556
inet	-13557
▁197	-13558
▁Max	-13559
▁Who	-13560
▁ack	-13561
▁hom	-13562
同比增长	-13563
agues	-13564
folio	-13565
posts	-13566
separ	-13567
Period	-13568
concat	-13569
orning	-13570
thread	-13571
▁Civil	-13572
▁Graph	-13573
▁Peano	-13574
riculum	-13575
▁Rights	-13576
▁Server	-13577
▁atomic	-13578
▁island	-13579
▁Charles	-13580
▁aspects	-13581
▁decided	-13582
▁modified	-13583
▁relevant	-13584
▁permission	-13585
▁references	-13586
querySelector	-13587
+"	-13588
/*	-13589
Tr	-13590
人体	-13591
俄军	-13592
修道	-13593
像是	-13594
写的	-13595
到的	-13596
县城	-13597
实体	-13598
探险	-13599
橄榄	-13600
沿岸	-13601
活性	-13602
现已	-13603
界的	-13604
纺织	-13605
缩写	-13606
较低	-13607
首度	-13608
1",	-13609
108	-13610
Ign	-13611
fox	-13612
nel	-13613
▁'.	-13614
▁gl	-13615
▁奖项	-13616
十三年	-13617
成功的	-13618
教育部	-13619
日举行	-13620
bide	-13621
eror	-13622
umed	-13623
▁oct	-13624
法兰克福	-13625
Bloom	-13626
brand	-13627
▁diag	-13628
******	-13629
▁Egypt	-13630
▁Token	-13631
▁careg	-13632
▁embed	-13633
▁trace	-13634
▁church	-13635
▁manner	-13636
▁tissue	-13637
Optional	-13638
computer	-13639
▁Request	-13640
▁rotateY	-13641
▁Resources	-13642
▁conducted	-13643
8+	-13644
OM	-13645
dp	-13646
zh	-13647
同性	-13648
喜爱	-13649
四世	-13650
定位	-13651
战胜	-13652
料理	-13653
期刊	-13654
树木	-13655
检察	-13656
混凝	-13657
灰色	-13658
炸弹	-13659
王位	-13660
编制	-13661
融资	-13662
讲谈	-13663
饭店	-13664
rus	-13665
syl	-13666
▁sl	-13667
会议员	-13668
加利福	-13669
并不是	-13670
形成了	-13671
海军大	-13672
湖北省	-13673
科维奇	-13674
穆斯林	-13675
igor	-13676
▁1),	-13677
▁Lib	-13678
▁bot	-13679
同时也是	-13680
actor	-13681
▁opin	-13682
▁weap	-13683
FFFFFF	-13684
Simple	-13685
licate	-13686
native	-13687
tility	-13688
▁Arial	-13689
▁breed	-13690
▁mainly	-13691
▁sounds	-13692
Complete	-13693
$/	-13694
▁哈	-13695
▁龙	-13696
内有	-13697
南海	-13698
可在	-13699
她们	-13700
录制	-13701
改名	-13702
日由	-13703
旨在	-13704
明代	-13705
板块	-13706
极端	-13707
水量	-13708
舰长	-13709
血管	-13710
道夫	-13711
遭受	-13712
那个	-13713
郑州	-13714
阳市	-13715
黄河	-13716
2',	-13717
:1.	-13718
Del	-13719
cop	-13720
tmp	-13721
vim	-13722
▁'%	-13723
的形式	-13724
的生活	-13725
Mich	-13726
seud	-13727
▁Are	-13728
占地面积	-13729
organ	-13730
raint	-13731
▁1959	-13732
▁Dise	-13733
▁Mass	-13734
▁Norm	-13735
charge	-13736
player	-13737
▁utils	-13738
dataset	-13739
▁Before	-13740
▁Empire	-13741
▁Street	-13742
▁appoint	-13743
▁courses	-13744
▁funding	-13745
▁promote	-13746
▁proport	-13747
▁refresh	-13748
▁treated	-13749
Resources	-13750
▁reduction	-13751
▁continuous	-13752
PH	-13753
▁初	-13754
依照	-13755
保安	-13756
内陆	-13757
前身	-13758
天府	-13759
年以	-13760
想法	-13761
护理	-13762
效应	-13763
神圣	-13764
自称	-13765
读者	-13766
违反	-13767
钢琴	-13768
防守	-13769
马里	-13770
pdf	-13771
是英国	-13772
消费者	-13773
的世界	-13774
的技术	-13775
的音乐	-13776
aten	-13777
cise	-13778
itan	-13779
pace	-13780
warn	-13781
▁Men	-13782
▁Pal	-13783
▁Tre	-13784
▁tro	-13785
▁天主教	-13786
Short	-13787
ademy	-13788
appro	-13789
orrow	-13790
riage	-13791
▁ball	-13792
appear	-13793
lambda	-13794
ounced	-13795
▁Click	-13796
▁Jahan	-13797
▁Women	-13798
Segment	-13799
forward	-13800
inverse	-13801
▁Common	-13802
▁Office	-13803
▁Thread	-13804
▁binary	-13805
▁conver	-13806
▁loaded	-13807
▁slaves	-13808
▁economy	-13809
▁contamin	-13810
▁hospital	-13811
▁regional	-13812
deprecated	-13813
▁chemicals	-13814
▁comparison	-13815
RoleAssignment	-13816
KeeperException	-13817
BG	-13818
NU	-13819
lr	-13820
mx	-13821
yy	-13822
▁胡	-13823
主人	-13824
吉尔	-13825
图案	-13826
地址	-13827
坐落	-13828
年与	-13829
指标	-13830
支流	-13831
米兰	-13832
维也	-13833
草原	-13834
近代	-13835
;">	-13836
Pad	-13837
ati	-13838
vin	-13839
叙利亚	-13840
讲谈社	-13841
Star	-13842
hard	-13843
vari	-13844
▁Cap	-13845
▁MIT	-13846
▁amp	-13847
▁inh	-13848
")]),	-13849
atial	-13850
ipart	-13851
trics	-13852
▁1989	-13853
▁Good	-13854
委员会委员	-13855
design	-13856
person	-13857
symbol	-13858
▁accum	-13859
loating	-13860
methods	-13861
▁conflic	-13862
▁rapidly	-13863
▁entirely	-13864
▁Available	-13865
▁convertSet	-13866
DK	-13867
Li	-13868
wg	-13869
▁科	-13870
人文	-13871
体型	-13872
分成	-13873
南华	-13874
原理	-13875
叛乱	-13876
合法	-13877
当前	-13878
打开	-13879
描绘	-13880
新生	-13881
是对	-13882
本书	-13883
沟通	-13884
清真	-13885
省的	-13886
约有	-13887
莎白	-13888
辞职	-13889
里面	-13890
Dnn	-13891
FFF	-13892
mac	-13893
sky	-13894
▁7.	-13895
▁公子	-13896
传教士	-13897
其中一	-13898
分之一	-13899
的中国	-13900
255,	-13901
Fail	-13902
enta	-13903
irds	-13904
roph	-13905
▁(1,	-13906
其中一个	-13907
冠状病毒	-13908
lists	-13909
stood	-13910
▁Gold	-13911
▁Hand	-13912
▁cogn	-13913
▁leads	-13914
▁seeds	-13915
▁sizes	-13916
pattern	-13917
▁extent	-13918
▁rivers	-13919
▁saying	-13920
▁Kingdom	-13921
▁feeling	-13922
signature	-13923
▁Wildlife	-13924
▁diabetes	-13925
▁referred	-13926
▁registry	-13927
ricultural	-13928
▁Community	-13929
▁continues	-13930
▁procedure	-13931
EventListener	-13932
▁NotImplemented	-13933
3:	-13934
4-	-13935
Na	-13936
▁另	-13937
▁每	-13938
任教	-13939
伤害	-13940
克努	-13941
塞纳	-13942
密切	-13943
广大	-13944
德语	-13945
恋爱	-13946
水中	-13947
波尔	-13948
睡眠	-13949
镜头	-13950
"])	-13951
']:	-13952
=1)	-13953
Nan	-13954
uan	-13955
▁(2	-13956
动车组	-13957
城市的	-13958
的作用	-13959
的前身	-13960
的美国	-13961
维也纳	-13962
该地区	-13963
路易斯	-13964
BODY	-13965
Term	-13966
▁kil	-13967
▁lit	-13968
Hover	-13969
adoop	-13970
gloss	-13971
ifies	-13972
Intent	-13973
Styles	-13974
atever	-13975
spaces	-13976
sylvan	-13977
tokens	-13978
▁sugar	-13979
Feature	-13980
Initial	-13981
hensive	-13982
iration	-13983
▁Jewish	-13984
▁python	-13985
transfer	-13986
▁Runtime	-13987
▁chapter	-13988
zookeeper	-13989
▁duration	-13990
▁magnetic	-13991
▁repeated	-13992
▁implemented	-13993
wd	-13994
▁内	-13995
▁谢	-13996
一至	-13997
一路	-13998
两名	-13999
仍在	-14000
共计	-14001
冲击	-14002
南路	-14003
发电	-14004
吉他	-14005
员外	-14006
姐姐	-14007
家长	-14008
寻求	-14009
梦想	-14010
消灭	-14011
蒂安	-14012
该国	-14013
谋杀	-14014
64,	-14015
ima	-14016
nan	-14017
oes	-14018
▁AP	-14019
▁TH	-14020
▁如果	-14021
强大的	-14022
生活在	-14023
1500	-14024
Lock	-14025
MAIN	-14026
▁-64	-14027
模式产地	-14028
azine	-14029
iform	-14030
strip	-14031
▁1920	-14032
▁1978	-14033
▁2023	-14034
▁onto	-14035
▁poet	-14036
Shader	-14037
marily	-14038
▁Cache	-14039
▁voice	-14040
▁Energy	-14041
▁Nature	-14042
▁hazard	-14043
specific	-14044
▁Carbide	-14045
▁prepare	-14046
IRInlined	-14047
inherited	-14048
▁Republic	-14049
▁infected	-14050
▁revealed	-14051
▁Microsoft	-14052
▁Expression	-14053
▁Pennsylvan	-14054
▁colleagues	-14055
▁television	-14056
7-	-14057
”.	-14058
上面	-14059
五世	-14060
元帅	-14061
即可	-14062
合唱	-14063
合格	-14064
多为	-14065
对战	-14066
封为	-14067
岛式	-14068
强大	-14069
改称	-14070
校友	-14071
案例	-14072
河口	-14073
浪速	-14074
索恩	-14075
聚集	-14076
趋势	-14077
身分	-14078
车型	-14079
远号	-14080
集合	-14081
骨骼	-14082
(1.	-14083
)).	-14084
170	-14085
3.5	-14086
350	-14087
?</	-14088
ELL	-14089
NET	-14090
oca	-14091
rgb	-14092
zed	-14093
交易所	-14094
制片人	-14095
型机车	-14096
波士顿	-14097
的母亲	-14098
经济学	-14099
联合会	-14100
.");	-14101
1972	-14102
safe	-14103
▁'',	-14104
▁64-	-14105
▁Rom	-14106
▁lab	-14107
▁thr	-14108
电视节目	-14109
going	-14110
inity	-14111
▁knew	-14112
。2020	-14113
Normal	-14114
exists	-14115
locity	-14116
▁citiz	-14117
▁squir	-14118
Wallace	-14119
istence	-14120
▁argued	-14121
▁seemed	-14122
Sequence	-14123
Strategy	-14124
▁degrees	-14125
▁islands	-14126
▁neither	-14127
▁parseInt	-14128
▁diversity	-14129
▁cellspacing	-14130
6)	-14131
oe	-14132
án	-14133
▁主	-14134
▁梅	-14135
争取	-14136
南至	-14137
发掘	-14138
回应	-14139
捷克	-14140
提议	-14141
是从	-14142
月在	-14143
档案	-14144
水利	-14145
瓦拉	-14146
相继	-14147
科的	-14148
符号	-14149
网上	-14150
该党	-14151
阿富	-14152
-1]	-14153
FIN	-14154
▁AD	-14155
▁作为	-14156
布政使	-14157
年中国	-14158
独立的	-14159
生物学	-14160
这也是	-14161
'));	-14162
3"}}	-14163
Find	-14164
Full	-14165
gate	-14166
star	-14167
▁194	-14168
▁GET	-14169
▁cos	-14170
另一方面	-14171
waves	-14172
▁USER	-14173
matrix	-14174
▁2010.	-14175
▁blind	-14176
▁grand	-14177
▁homes	-14178
▁kinds	-14179
▁scene	-14180
Promise	-14181
compare	-14182
pending	-14183
▁Design	-14184
▁Simple	-14185
▁annual	-14186
▁taught	-14187
▁territ	-14188
▁carried	-14189
▁colspan	-14190
▁figures	-14191
▁literal	-14192
▁offered	-14193
variables	-14194
▁collapse	-14195
Sequential	-14196
▁landscape	-14197
▁originally	-14198
▁underlying	-14199
▁administration	-14200
7/	-14201
wc	-14202
но	-14203
▁史	-14204
。9	-14205
一支	-14206
万里	-14207
为大	-14208
优化	-14209
别墅	-14210
北起	-14211
复活	-14212
外围	-14213
奖励	-14214
姐妹	-14215
感情	-14216
新型	-14217
有了	-14218
有利	-14219
涵盖	-14220
菲利	-14221
赞助	-14222
高温	-14223
-3.	-14224
101	-14225
118	-14226
Cor	-14227
Dav	-14228
Var	-14229
war	-14230
▁rs	-14231
副主任	-14232
后来的	-14233
基斯坦	-14234
混凝土	-14235
清真寺	-14236
秘书长	-14237
1975	-14238
BUTE	-14239
Dali	-14240
FORM	-14241
fold	-14242
xref	-14243
▁800	-14244
▁Pet	-14245
▁nur	-14246
年毕业于	-14247
learn	-14248
▁Cath	-14249
▁decl	-14250
Detail	-14251
Errors	-14252
Widget	-14253
planes	-14254
▁stone	-14255
▁Custom	-14256
▁conven	-14257
▁credit	-14258
▁critic	-14259
▁killed	-14260
▁waters	-14261
▁widget	-14262
▁capture	-14263
▁declare	-14264
▁females	-14265
▁periods	-14266
▁village	-14267
▁certainly	-14268
▁suffering	-14269
▁potentially	-14270
▁relationships	-14271
/'	-14272
1%	-14273
6%	-14274
RS	-14275
fd	-14276
rx	-14277
▁江	-14278
三种	-14279
之为	-14280
书房	-14281
人称	-14282
名叫	-14283
周刊	-14284
嘉宾	-14285
女神	-14286
宽度	-14287
巴拉	-14288
强化	-14289
指示	-14290
歌词	-14291
此前	-14292
法定	-14293
洛斯	-14294
渥太	-14295
祖先	-14296
金山	-14297
高架	-14298
IDS	-14299
UTH	-14300
ods	-14301
▁km	-14302
▁pd	-14303
▁约翰	-14304
产生了	-14305
存在的	-14306
安徽省	-14307
张专辑	-14308
提出的	-14309
日开始	-14310
的城市	-14311
的成绩	-14312
菲尔德	-14313
Keys	-14314
Pane	-14315
bios	-14316
▁Bit	-14317
▁VAL	-14318
▁fif	-14319
师范大学	-14320
维多利亚	-14321
erial	-14322
。2005	-14323
shared	-14324
▁Among	-14325
TagName	-14326
▁Family	-14327
▁Secret	-14328
▁attend	-14329
▁Studies	-14330
▁ignored	-14331
▁familiar	-14332
▁normally	-14333
▁thousand	-14334
ObjPointer	-14335
▁procedures	-14336
▁itemMembers	-14337
▁constitution	-14338
▁disabilities	-14339
▁representation	-14340
.\	-14341
代谢	-14342
仪器	-14343
会社	-14344
你们	-14345
分享	-14346
剧中	-14347
南宋	-14348
和华	-14349
因其	-14350
头衔	-14351
巴布	-14352
形容	-14353
怀疑	-14354
战绩	-14355
曼联	-14356
本次	-14357
本片	-14358
格拉	-14359
格鲁	-14360
此事	-14361
清华	-14362
的全	-14363
矛盾	-14364
老板	-14365
衍生	-14366
诸葛	-14367
384	-14368
ANT	-14369
edu	-14370
enc	-14371
los	-14372
tml	-14373
▁建筑	-14374
为中国	-14375
伊拉克	-14376
使用了	-14377
分布在	-14378
参与了	-14379
张单曲	-14380
日本的	-14381
alar	-14382
writ	-14383
▁#66	-14384
▁-10	-14385
▁Que	-14386
▁USA	-14387
▁aid	-14388
硕士学位	-14389
audio	-14390
cribe	-14391
culpt	-14392
illis	-14393
▁1984	-14394
▁Core	-14395
▁Supp	-14396
ackson	-14397
lature	-14398
mistry	-14399
▁phone	-14400
▁woman	-14401
HashMap	-14402
station	-14403
twitter	-14404
▁Figure	-14405
▁forced	-14406
entifier	-14407
▁Instead	-14408
▁adopted	-14409
▁disable	-14410
▁leaving	-14411
Validation	-14412
speciesmap	-14413
▁classical	-14414
getInstance	-14415
▁successfully	-14416
/2	-14417
hl	-14418
▁о	-14419
▁简	-14420
。8	-14421
一期	-14422
动的	-14423
国土	-14424
培育	-14425
幕府	-14426
年他	-14427
昆虫	-14428
杆菌	-14429
沃尔	-14430
率军	-14431
祭祀	-14432
离婚	-14433
粮食	-14434
证书	-14435
进球	-14436
,17	-14437
▁{0	-14438
▁除了	-14439
发生了	-14440
巡回赛	-14441
的国际	-14442
项目的	-14443
LINE	-14444
band	-14445
olid	-14446
osal	-14447
rgba	-14448
umin	-14449
▁(0,	-14450
▁Spe	-14451
▁buy	-14452
▁sem	-14453
▁wis	-14454
联赛冠军	-14455
该物种的	-14456
POINT	-14457
Track	-14458
lasti	-14459
▁600;	-14460
▁Well	-14461
▁shut	-14462
▁skip	-14463
rapped	-14464
usters	-14465
▁2012.	-14466
▁grade	-14467
▁signs	-14468
Replace	-14469
Results	-14470
▁advice	-14471
▁breath	-14472
compiler	-14473
idential	-14474
▁reality	-14475
▁exchange	-14476
Annotation	-14477
lastiCache	-14478
▁opportunities	-14479
>{	-14480
GA	-14481
▁千	-14482
为食	-14483
之时	-14484
亮相	-14485
则在	-14486
国外	-14487
对称	-14488
山的	-14489
巨人	-14490
平成	-14491
彼此	-14492
政协	-14493
早在	-14494
晚期	-14495
未有	-14496
直辖	-14497
福州	-14498
街庄	-14499
韦瑟	-14500
={{	-14501
Bal	-14502
TAG	-14503
▁ED	-14504
▁Ni	-14505
▁[[	-14506
严重的	-14507
主义者	-14508
作曲家	-14509
最后的	-14510
现代化	-14511
进行的	-14512
重庆市	-14513
1"}}	-14514
1976	-14515
Conv	-14516
Draw	-14517
EDIT	-14518
LOCK	-14519
imit	-14520
lamm	-14521
▁Gal	-14522
▁Hop	-14523
▁gla	-14524
旅客铁道	-14525
Nucle	-14526
▁$(".	-14527
▁1945	-14528
▁1956	-14529
▁Look	-14530
▁aged	-14531
▁felt	-14532
Insert	-14533
semble	-14534
aughter	-14535
lineNum	-14536
sysbios	-14537
▁inches	-14538
▁invent	-14539
▁liquid	-14540
▁calling	-14541
▁filters	-14542
Bloomberg	-14543
available	-14544
substring	-14545
▁tropical	-14546
▁beautiful	-14547
▁depending	-14548
▁partition	-14549
▁practical	-14550
▁providers	-14551
▁conversion	-14552
▁industrial	-14553
▁proportion	-14554
▁destination	-14555
oy	-14556
ко	-14557
”;	-14558
▁乌	-14559
▁片	-14560
一体	-14561
二期	-14562
南区	-14563
夜间	-14564
延续	-14565
总体	-14566
接替	-14567
时空	-14568
次于	-14569
石头	-14570
苗栗	-14571
见的	-14572
逻辑	-14573
道的	-14574
102	-14575
119	-14576
Alp	-14577
MSG	-14578
VSI	-14579
ura	-14580
▁Br	-14581
▁Po	-14582
▁SI	-14583
▁fs	-14584
威尔斯	-14585
意味着	-14586
活动的	-14587
Core	-14588
▁255	-14589
▁Sun	-14590
▁fle	-14591
▁foo	-14592
asses	-14593
async	-14594
lator	-14595
▁1955	-14596
▁Hill	-14597
▁priv	-14598
▁race	-14599
cancel	-14600
candid	-14601
braries	-14602
oration	-14603
quantum	-14604
rounded	-14605
▁bright	-14606
rollment	-14607
▁factory	-14608
▁overlap	-14609
▁metadata	-14610
▁severity	-14611
▁showdown	-14612
assertTrue	-14613
▁buildings	-14614
removeClass	-14615
▁disability	-14616
▁frequently	-14617
▁impossible	-14618
▁understood	-14619
▁collections	-14620
ReplicationGroup	-14621
'}	-14622
CP	-14623
VE	-14624
东亚	-14625
乐章	-14626
他曾	-14627
以东	-14628
便利	-14629
党员	-14630
命运	-14631
哺乳	-14632
夫妻	-14633
夺取	-14634
定律	-14635
岩浆	-14636
庄村	-14637
序列	-14638
愿意	-14639
承诺	-14640
捐赠	-14641
提琴	-14642
生日	-14643
由该	-14644
的上	-14645
群体	-14646
边形	-14647
这两	-14648
这位	-14649
28;	-14650
dig	-14651
pic	-14652
▁IP	-14653
▁本站	-14654
▁然而	-14655
战争中	-14656
来自于	-14657
的意思	-14658
1979	-14659
Args	-14660
BACK	-14661
SBML	-14662
bell	-14663
fall	-14664
isis	-14665
rais	-14666
▁/>,	-14667
▁CDC	-14668
▁Cub	-14669
Basic	-14670
agger	-14671
wheel	-14672
▁0.15	-14673
▁1993	-14674
▁Grid	-14675
▁flood	-14676
general	-14677
timeout	-14678
▁Cancer	-14679
▁breast	-14680
▁discip	-14681
▁manage	-14682
▁のち春阳文库	-14683
poration	-14684
▁Element	-14685
▁Example	-14686
▁Florida	-14687
▁HashMap	-14688
▁married	-14689
▁advanced	-14690
▁dementia	-14691
▁electron	-14692
▁particles	-14693
▁residents	-14694
▁assertThat	-14695
▁dictionary	-14696
,.	-14697
BB	-14698
BL	-14699
`)	-14700
bp	-14701
上将	-14702
二次	-14703
他说	-14704
依赖	-14705
几年	-14706
刑事	-14707
努斯	-14708
同期	-14709
向西	-14710
国有	-14711
多项	-14712
层的	-14713
川县	-14714
并无	-14715
提交	-14716
斯通	-14717
燃烧	-14718
童军	-14719
继任	-14720
职员	-14721
莱斯	-14722
这时	-14723
野生	-14724
金斯	-14725
_30	-14726
mis	-14727
via	-14728
▁-4	-14729
十五年	-14730
季后赛	-14731
排行榜	-14732
提出了	-14733
殖民地	-14734
玛丽亚	-14735
的地位	-14736
都御史	-14737
Attr	-14738
PREF	-14739
Rate	-14740
Wrap	-14741
enum	-14742
▁Jul	-14743
▁zip	-14744
文化遗产	-14745
监督管理	-14746
Share	-14747
akers	-14748
hours	-14749
tasks	-14750
venue	-14751
▁ends	-14752
▁nutr	-14753
。2004	-14754
Bundle	-14755
Single	-14756
aching	-14757
ailing	-14758
colors	-14759
future	-14760
Nucleon	-14761
▁Spring	-14762
▁copies	-14763
▁helped	-14764
▁tested	-14765
database	-14766
▁founded	-14767
▁outcome	-14768
Paragraph	-14769
▁Language	-14770
▁appeared	-14771
▁endblock	-14772
▁principle	-14773
*-	-14774
3。	-14775
TL	-14776
ki	-14777
wt	-14778
不动	-14779
专注	-14780
东站	-14781
做了	-14782
南站	-14783
厚度	-14784
名词	-14785
和西	-14786
容纳	-14787
所需	-14788
本部	-14789
正德	-14790
母舰	-14791
点的	-14792
的信	-14793
石墨	-14794
纳德	-14795
罚款	-14796
蔬菜	-14797
规格	-14798
迪士	-14799
选拔	-14800
重复	-14801
(2,	-14802
DTD	-14803
tic	-14804
▁对于	-14805
年成立	-14806
飞行员	-14807
5000	-14808
Cook	-14809
ados	-14810
▁#34	-14811
▁768	-14812
▁XML	-14813
evalu	-14814
intro	-14815
ynamo	-14816
▁Lake	-14817
▁Love	-14818
▁Sovi	-14819
▁acts	-14820
▁coin	-14821
▁elev	-14822
▁math	-14823
▁vast	-14824
。1950	-14825
ifying	-14826
▁Times	-14827
▁fewer	-14828
▁shark	-14829
=======	-14830
Collect	-14831
Michael	-14832
Utility	-14833
utorial	-14834
▁Middle	-14835
▁coords	-14836
▁flight	-14837
▁respon	-14838
▁stages	-14839
▁vulner	-14840
advanced	-14841
timeline	-14842
▁Boolean	-14843
▁Illegal	-14844
▁checked	-14845
▁indices	-14846
▁Sciences	-14847
▁extended	-14848
breadcrumb	-14849
▁enumerate	-14850
▁locations	-14851
▁primarily	-14852
▁technical	-14853
▁Connection	-14854
▁Proceedings	-14855
一天	-14856
一线	-14857
争夺	-14858
作业	-14859
其子	-14860
出于	-14861
可是	-14862
常规	-14863
截止	-14864
旋转	-14865
日后	-14866
枢纽	-14867
水果	-14868
激烈	-14869
的山	-14870
纷纷	-14871
让他	-14872
诺曼	-14873
进口	-14874
防护	-14875
面前	-14876
">@	-14877
)、《	-14878
14,	-14879
=1,	-14880
BUT	-14881
Sql	-14882
fav	-14883
lon	-14884
oot	-14885
pus	-14886
▁',	-14887
▁Er	-14888
▁为了	-14889
▁生态	-14890
克努特	-14891
在他的	-14892
挑战者	-14893
新西兰	-14894
日发行	-14895
生产的	-14896
的妻子	-14897
的环境	-14898
迪士尼	-14899
Stop	-14900
addr	-14901
when	-14902
▁(10	-14903
▁Cic	-14904
▁FOR	-14905
5,000	-14906
Enter	-14907
pages	-14908
Actual	-14909
Picker	-14910
ursing	-14911
▁Bible	-14912
▁depth	-14913
▁Action	-14914
▁Atlant	-14915
▁agents	-14916
▁append	-14917
▁ecolog	-14918
▁motion	-14919
▁yellow	-14920
Iterator	-14921
bordered	-14922
▁Academy	-14923
▁Digital	-14924
▁driving	-14925
▁freedom	-14926
▁habitat	-14927
▁bacteria	-14928
▁clinical	-14929
▁possibly	-14930
montserrat	-14931
▁Professor	-14932
▁disorders	-14933
Constructor	-14934
▁consistent	-14935
▁authorities	-14936
▁Pennsylvania	-14937
(<	-14938
+9	-14939
2》	-14940
;|	-14941
MQ	-14942
VV	-14943
一部	-14944
中原	-14945
也能	-14946
仍有	-14947
兰州	-14948
兵团	-14949
决议	-14950
列宁	-14951
响应	-14952
守护	-14953
尼奥	-14954
尼泊	-14955
弗兰	-14956
很难	-14957
恒隆	-14958
特区	-14959
现金	-14960
理由	-14961
维克	-14962
被杀	-14963
这部	-14964
13;	-14965
6">	-14966
;&#	-14967
]],	-14968
abc	-14969
ido	-14970
lax	-14971
▁Ev	-14972
中心的	-14973
准决赛	-14974
卫冕者	-14975
年获得	-14976
男主角	-14977
辽宁省	-14978
领域的	-14979
Conf	-14980
Dest	-14981
acts	-14982
axon	-14983
fade	-14984
requ	-14985
▁(2)	-14986
▁EPA	-14987
▁hvr	-14988
主教座堂	-14989
Agent	-14990
alian	-14991
izers	-14992
▁Gard	-14993
▁Writ	-14994
▁laun	-14995
▁rout	-14996
▁samp	-14997
▁trip	-14998
Effect	-14999
ignore	-15000
▁agent	-15001
▁blank	-15002
▁games	-15003
▁realm	-15004
▁saved	-15005
▁tried	-15006
Classes	-15007
Metrics	-15008
amental	-15009
▁intent	-15010
▁lambda	-15011
▁marine	-15012
▁sorted	-15013
▁wonder	-15014
endpoint	-15015
▁Everett	-15016
▁cooling	-15017
▁episode	-15018
▁instant	-15019
▁journal	-15020
▁recognize	-15021
▁consequences	-15022
-)	-15023
1(	-15024
CB	-15025
VS	-15026
bf	-15027
sf	-15028
▁사	-15029
之上	-15030
休闲	-15031
住房	-15032
侦探	-15033
债务	-15034
全年	-15035
再转	-15036
双打	-15037
妈妈	-15038
布置	-15039
常务	-15040
文帝	-15041
有线	-15042
病的	-15043
的神	-15044
福音	-15045
老人	-15046
运会	-15047
除此	-15048
처리	-15049
Dom	-15050
▁3:	-15051
▁IF	-15052
▁];	-15053
▁位于	-15054
▁第四	-15055
不知道	-15056
丰富的	-15057
年以来	-15058
总人口	-15059
总决赛	-15060
收视率	-15061
的经济	-15062
设立的	-15063
轨电车	-15064
(180	-15065
anta	-15066
grow	-15067
▁"3"	-15068
▁ner	-15069
▁tru	-15070
Alert	-15071
ingly	-15072
visit	-15073
▁band	-15074
▁film	-15075
▁jour	-15076
▁king	-15077
▁车站结构	-15078
▁alter	-15079
▁forth	-15080
▁newly	-15081
Objects	-15082
prevent	-15083
▁Follow	-15084
▁Select	-15085
▁couple	-15086
▁indeed	-15087
dispatch	-15088
feedback	-15089
▁station	-15090
▁targets	-15091
Helvetica	-15092
Signature	-15093
directory	-15094
ibilities	-15095
▁detailed	-15096
▁feedback	-15097
▁synchron	-15098
▁syndrome	-15099
▁Evolution	-15100
▁execution	-15101
QE	-15102
▁真	-15103
。7	-15104
一旦	-15105
一生	-15106
下方	-15107
为期	-15108
九州	-15109
佐藤	-15110
各大	-15111
后方	-15112
撞击	-15113
旧址	-15114
正义	-15115
用了	-15116
第十	-15117
贯通	-15118
112	-15119
16,	-15120
=0,	-15121
Pay	-15122
una	-15123
▁(_	-15124
▁95	-15125
▁{$	-15126
。11	-15127
居住在	-15128
有两个	-15129
阿富汗	-15130
>.</	-15131
Dict	-15132
Vert	-15133
ambo	-15134
irty	-15135
▁Slo	-15136
铁路车站	-15137
,2010	-15138
IBUTE	-15139
Sheet	-15140
▁1889	-15141
▁intr	-15142
▁tiny	-15143
ACTION	-15144
Memory	-15145
Second	-15146
ractor	-15147
▁Spain	-15148
▁maint	-15149
▁toxic	-15150
runtime	-15151
▁Logger	-15152
▁chosen	-15153
▁escape	-15154
▁excess	-15155
▁prepar	-15156
iterator	-15157
parseInt	-15158
▁Michael	-15159
▁portion	-15160
▁survive	-15161
▁trouble	-15162
该物种的模式产地	-15163
▁religion	-15164
▁percentage	-15165
OutputStream	-15166
getAttribute	-15167
ynamoHttpServlet	-15168
>:	-15169
eq	-15170
vc	-15171
▁假	-15172
克利	-15173
公寓	-15174
内地	-15175
分割	-15176
前来	-15177
加快	-15178
女人	-15179
年任	-15180
弟子	-15181
录取	-15182
得主	-15183
情感	-15184
攻入	-15185
曾被	-15186
朝阳	-15187
本来	-15188
检验	-15189
法官	-15190
积分	-15191
经纪	-15192
职责	-15193
若干	-15194
警告	-15195
鉴定	-15196
风暴	-15197
马格	-15198
4">	-15199
>{{	-15200
May	-15201
ORY	-15202
ala	-15203
hex	-15204
oom	-15205
oul	-15206
一部分	-15207
世纪的	-15208
十四年	-15209
选举中	-15210
造成的	-15211
UEST	-15212
ades	-15213
pite	-15214
▁'')	-15215
医科大学	-15216
liner	-15217
unday	-15218
▁Pers	-15219
▁rank	-15220
▁salt	-15221
▁zone	-15222
000000	-15223
Public	-15224
Serial	-15225
direct	-15226
▁Local	-15227
▁Short	-15228
▁delta	-15229
▁Columb	-15230
constant	-15231
nections	-15232
readonly	-15233
▁Current	-15234
▁Section	-15235
▁protein	-15236
▁explicit	-15237
▁matching	-15238
▁Management	-15239
▁intelligence	-15240
;,	-15241
VR	-15242
pk	-15243
▁太	-15244
事中	-15245
代码	-15246
优质	-15247
制备	-15248
动工	-15249
原料	-15250
存储	-15251
就任	-15252
布里	-15253
引导	-15254
打进	-15255
摩尔	-15256
擅长	-15257
改设	-15258
日晚	-15259
此剧	-15260
泰勒	-15261
突击	-15262
转为	-15263
软条	-15264
-24	-15265
1.1	-15266
::-	-15267
Lat	-15268
NHK	-15269
fla	-15270
phe	-15271
pol	-15272
▁#8	-15273
▁Oh	-15274
亿港元	-15275
升格为	-15276
就读于	-15277
湖南省	-15278
">{{	-15279
eman	-15280
orph	-15281
roat	-15282
usic	-15283
▁-*-	-15284
▁Haw	-15285
▁Low	-15286
▁Try	-15287
巴基斯坦	-15288
hetic	-15289
setup	-15290
touch	-15291
▁1986	-15292
▁Mont	-15293
▁Symp	-15294
▁eval	-15295
▁seek	-15296
▁soft	-15297
▁wave	-15298
ACCESS	-15299
Center	-15300
groups	-15301
rating	-15302
series	-15303
▁#333;	-15304
▁brush	-15305
▁stand	-15306
ilation	-15307
licated	-15308
measure	-15309
samples	-15310
▁contro	-15311
▁opened	-15312
relation	-15313
▁Several	-15314
▁entered	-15315
AsmParser	-15316
▁Northern	-15317
ingerprint	-15318
▁assignments	-15319
UB	-15320
rr	-15321
}\	-15322
之地	-15323
但不	-15324
公社	-15325
出土	-15326
含量	-15327
国语	-15328
多样	-15329
归类	-15330
总是	-15331
收到	-15332
无限	-15333
果实	-15334
欧文	-15335
汉语	-15336
渗透	-15337
用品	-15338
男孩	-15339
的爱	-15340
终结	-15341
舰艇	-15342
认定	-15343
违法	-15344
随机	-15345
29,	-15346
;|&	-15347
Ang	-15348
Any	-15349
Art	-15350
DIS	-15351
Don	-15352
MIT	-15353
mpt	-15354
oct	-15355
yan	-15356
▁44	-15357
▁历任	-15358
修道院	-15359
形成的	-15360
beam	-15361
ione	-15362
unte	-15363
urgl	-15364
▁Cli	-15365
▁HTT	-15366
▁Mah	-15367
▁fro	-15368
ested	-15369
queue	-15370
riend	-15371
ushed	-15372
▁Greg	-15373
▁Kids	-15374
▁pray	-15375
▁wish	-15376
▁的时区为	-15377
rotate	-15378
▁orbit	-15379
▁repro	-15380
Product	-15381
▁Gospel	-15382
▁fruits	-15383
▁linked	-15384
▁vector	-15385
▁与接壤的市镇	-15386
▁的邮政编码为	-15387
▁Support	-15388
▁centers	-15389
▁poverty	-15390
subscribe	-15391
▁accuracy	-15392
▁explains	-15393
▁所属的省级选区为	-15394
validation	-15395
▁Therefore	-15396
▁collector	-15397
▁organisms	-15398
▁permanent	-15399
▁specifically	-15400
SR	-15401
és	-15402
ли	-15403
乌斯	-15404
任意	-15405
农场	-15406
反而	-15407
回忆	-15408
型号	-15409
基层	-15410
护照	-15411
拓展	-15412
接管	-15413
校舍	-15414
汉娜	-15415
焦点	-15416
特烈	-15417
狮子	-15418
直流	-15419
码区	-15420
确实	-15421
翌年	-15422
蒂亚	-15423
评选	-15424
这场	-15425
里昂	-15426
10-	-15427
115	-15428
Raw	-15429
]).	-15430
▁Em	-15431
学校的	-15432
戴维斯	-15433
族自治	-15434
服务的	-15435
的大型	-15436
组织的	-15437
腓特烈	-15438
Flow	-15439
ding	-15440
▁"_:	-15441
▁160	-15442
▁cat	-15443
▁hun	-15444
▁sac	-15445
▁tit	-15446
》(19	-15447
被任命为	-15448
There	-15449
guild	-15450
ircle	-15451
loads	-15452
▁Army	-15453
▁Blue	-15454
▁IHEs	-15455
▁Init	-15456
▁Rule	-15457
▁gall	-15458
▁mort	-15459
▁park	-15460
▁pure	-15461
Arrays	-15462
Compat	-15463
Engine	-15464
achine	-15465
policy	-15466
router	-15467
▁Legis	-15468
▁Today	-15469
ranches	-15470
▁discri	-15471
Duration	-15472
ViewById	-15473
▁desired	-15474
▁gesture	-15475
▁Template	-15476
▁counties	-15477
▁oldspace	-15478
▁purposes	-15479
▁studying	-15480
ailability	-15481
oSelection	-15482
▁effectively	-15483
▁electricity	-15484
▁increasingly	-15485
▁observations	-15486
(\	-15487
?)	-15488
Gu	-15489
tv	-15490
}"	-15491
▁武	-15492
▁法	-15493
▁秦	-15494
。5	-15495
一项	-15496
乃至	-15497
二等	-15498
企图	-15499
入围	-15500
北宋	-15501
友谊	-15502
后又	-15503
基尔	-15504
奖牌	-15505
布雷	-15506
影像	-15507
据说	-15508
条例	-15509
林业	-15510
氨酸	-15511
穿过	-15512
策划	-15513
药品	-15514
议长	-15515
配套	-15516
院校	-15517
隐藏	-15518
雕像	-15519
顺治	-15520
280	-15521
Gra	-15522
aud	-15523
fli	-15524
▁({	-15525
▁-2	-15526
▁2、	-15527
▁CH	-15528
▁TR	-15529
▁по	-15530
下来的	-15531
世纪初	-15532
以外的	-15533
包括了	-15534
安德烈	-15535
改编自	-15536
有很多	-15537
的第三	-15538
1212	-15539
Hist	-15540
TENT	-15541
[1].	-15542
coup	-15543
oked	-15544
sans	-15545
▁-50	-15546
▁Est	-15547
▁III	-15548
▁ban	-15549
attrs	-15550
etary	-15551
thead	-15552
words	-15553
▁1949	-15554
▁1977	-15555
▁Conf	-15556
▁Next	-15557
▁SBML	-15558
▁elem	-15559
▁emit	-15560
▁stem	-15561
▁tour	-15562
▁slide	-15563
Through	-15564
console	-15565
dropify	-15566
magenta	-15567
▁launch	-15568
External	-15569
standard	-15570
▁Despite	-15571
▁arrived	-15572
▁closely	-15573
▁physics	-15574
▁reverse	-15575
▁surgery	-15576
stringify	-15577
▁concrete	-15578
▁ellipsis	-15579
▁encourag	-15580
▁official	-15581
▁receiving	-15582
▁Translators	-15583
:`	-15584
ни	-15585
三次	-15586
伊利	-15587
优先	-15588
伟豪	-15589
先发	-15590
决策	-15591
前锋	-15592
剪辑	-15593
包装	-15594
南投	-15595
合肥	-15596
失踪	-15597
年才	-15598
并为	-15599
张家	-15600
德良	-15601
总共	-15602
探戈	-15603
是将	-15604
滑雪	-15605
球的	-15606
矿物	-15607
认真	-15608
队在	-15609
陆地	-15610
高山	-15611
13,	-15612
151	-15613
509	-15614
Ret	-15615
ami	-15616
bre	-15617
cpp	-15618
ici	-15619
▁"6	-15620
▁39	-15621
▁人物	-15622
▁战后	-15623
世纪末	-15624
去世后	-15625
在当时	-15626
学生的	-15627
排名第	-15628
有可能	-15629
的内容	-15630
米尔寇	-15631
统治者	-15632
长时间	-15633
HERE	-15634
Save	-15635
atas	-15636
coln	-15637
derr	-15638
eval	-15639
rary	-15640
▁Bas	-15641
▁von	-15642
万平方米	-15643
retry	-15644
trace	-15645
▁Four	-15646
▁shel	-15647
333333	-15648
ifiers	-15649
ursive	-15650
▁#999;	-15651
▁Three	-15652
▁diagn	-15653
▁floor	-15654
Private	-15655
cluding	-15656
▁Output	-15657
▁battle	-15658
▁modulo	-15659
▁prices	-15660
▁confirm	-15661
▁forests	-15662
▁impacts	-15663
▁printed	-15664
amination	-15665
getMessage	-15666
▁expensive	-15667
▁appearance	-15668
▁philosophy	-15669
CF	-15670
东海	-15671
先锋	-15672
公立	-15673
名誉	-15674
商会	-15675
团长	-15676
奥古	-15677
季节	-15678
定于	-15679
宣称	-15680
录影	-15681
德斯	-15682
成的	-15683
手枪	-15684
提前	-15685
斯里	-15686
此地	-15687
法尔	-15688
私立	-15689
胆囊	-15690
见到	-15691
谈判	-15692
路站	-15693
通行	-15694
野村	-15695
)):	-15696
32.	-15697
BAR	-15698
TES	-15699
▁比赛	-15700
二十厅	-15701
发生的	-15702
古老的	-15703
和社会	-15704
失去了	-15705
开始了	-15706
bean	-15707
lots	-15708
tage	-15709
umes	-15710
▁(__	-15711
▁350	-15712
学士学位	-15713
(100%	-15714
Login	-15715
▁1901	-15716
▁1930	-15717
▁1958	-15718
▁1985	-15719
▁debt	-15720
▁0.1);	-15721
▁Board	-15722
▁solve	-15723
▁trend	-15724
Subject	-15725
Summary	-15726
Support	-15727
urrency	-15728
▁Alaska	-15729
▁driver	-15730
▁excell	-15731
▁latter	-15732
▁pieces	-15733
▁sculpt	-15734
Consumer	-15735
▁entries	-15736
▁focused	-15737
▁letters	-15738
copyright	-15739
▁concepts	-15740
▁involves	-15741
▁sections	-15742
▁describes	-15743
▁immediate	-15744
▁controlled	-15745
▁depression	-15746
############	-15747
▁explanation	-15748
▁represented	-15749
▁comprehensive	-15750
▁responsibility	-15751
MB	-15752
dy	-15753
▁人	-15754
▁曹	-15755
スト	-15756
下载	-15757
不多	-15758
亚目	-15759
典型	-15760
君士	-15761
在线	-15762
大公	-15763
季军	-15764
巴赫	-15765
年于	-15766
情形	-15767
教室	-15768
教科	-15769
日语	-15770
更好	-15771
村庄	-15772
海南	-15773
渐渐	-15774
牛皮	-15775
练习	-15776
自此	-15777
行者	-15778
说话	-15779
跨越	-15780
车体	-15781
这也	-15782
逮捕	-15783
量子	-15784
防控	-15785
260	-15786
404	-15787
How	-15788
▁5;	-15789
▁CD	-15790
▁其中	-15791
名举人	-15792
大学生	-15793
就可以	-15794
尼泊尔	-15795
开发的	-15796
最多的	-15797
的日本	-15798
继承人	-15799
维拉尔	-15800
Func	-15801
apis	-15802
fare	-15803
quee	-15804
real	-15805
rink	-15806
▁-1,	-15807
▁Dan	-15808
Chart	-15809
Month	-15810
ouses	-15811
▁TYPE	-15812
Handle	-15813
Towers	-15814
▁Enter	-15815
▁atoms	-15816
▁fault	-15817
▁molec	-15818
▁rough	-15819
0000000	-15820
Runtime	-15821
VERSION	-15822
▁Agency	-15823
▁cities	-15824
Internal	-15825
activity	-15826
subtitle	-15827
▁removal	-15828
resources	-15829
structure	-15830
▁customer	-15831
▁daughter	-15832
▁manifest	-15833
▁redirect	-15834
fullscreen	-15835
▁candidate	-15836
▁contained	-15837
Authorization	-15838
▁concentration	-15839
/8	-15840
=2	-15841
го	-15842
之内	-15843
乌拉	-15844
修正	-15845
兵马	-15846
卡罗	-15847
去年	-15848
取自	-15849
和小	-15850
国公	-15851
国旗	-15852
天空	-15853
姊妹	-15854
数百	-15855
杀手	-15856
河道	-15857
溶液	-15858
町村	-15859
的阿	-15860
肯定	-15861
重的	-15862
预言	-15863
cks	-15864
ifs	-15865
公开赛	-15866
十七年	-15867
年期间	-15868
的名称	-15869
的结果	-15870
的行为	-15871
类似于	-15872
都可以	-15873
1942	-15874
Slot	-15875
brid	-15876
burg	-15877
ixin	-15878
rise	-15879
stud	-15880
▁180	-15881
▁Ang	-15882
▁Pen	-15883
▁gay	-15884
▁swe	-15885
北京大学	-15886
riers	-15887
▁1940	-15888
▁Hind	-15889
▁Task	-15890
▁adds	-15891
▁paid	-15892
▁spot	-15893
Weight	-15894
ensing	-15895
▁Brown	-15896
▁Italy	-15897
▁crime	-15898
▁fever	-15899
▁males	-15900
▁moves	-15901
▁paths	-15902
▁tbody	-15903
dirname	-15904
payload	-15905
utation	-15906
weights	-15907
welling	-15908
▁listen	-15909
▁photos	-15910
getClass	-15911
original	-15912
▁Publish	-15913
▁passing	-15914
▁Assembly	-15915
▁opposite	-15916
▁versions	-15917
▁mentioned	-15918
▁scientist	-15919
▁corresponding	-15920
”“	-15921
ット	-15922
下面	-15923
传递	-15924
作物	-15925
城际	-15926
子宫	-15927
希尔	-15928
恶魔	-15929
成化	-15930
所得	-15931
数码	-15932
斑点	-15933
瓦兹	-15934
电站	-15935
编组	-15936
老年	-15937
译为	-15938
首届	-15939
驻守	-15940
Cam	-15941
DVD	-15942
cke	-15943
cup	-15944
ema	-15945
▁使用	-15946
。16	-15947
仅次于	-15948
但没有	-15949
君士坦	-15950
奖最佳	-15951
带来的	-15952
日下午	-15953
江西省	-15954
的要求	-15955
迈克尔	-15956
-"][	-15957
hour	-15958
lain	-15959
plit	-15960
▁Yet	-15961
大辛巴威	-15962
总部位于	-15963
战争期间	-15964
电子游戏	-15965
Place	-15966
arged	-15967
torch	-15968
while	-15969
zeros	-15970
▁1967	-15971
▁300;	-15972
▁Help	-15973
▁shif	-15974
Google	-15975
Switch	-15976
cookie	-15977
lapsed	-15978
▁Royal	-15979
olester	-15980
▁Contin	-15981
▁filled	-15982
▁issued	-15983
▁topics	-15984
complete	-15985
▁battery	-15986
▁comfort	-15987
▁dollars	-15988
▁enhance	-15989
▁typical	-15990
getSingle	-15991
▁attached	-15992
▁indicates	-15993
▁isolation	-15994
▁predators	-15995
▁assessment	-15996
▁department	-15997
▁revolution	-15998
▁subsequent	-15999
Mo	-16000
SK	-16001
wv	-16002
▁市	-16003
▁萨	-16004
一号	-16005
不变	-16006
享受	-16007
企划	-16008
假设	-16009
北站	-16010
受损	-16011
回来	-16012
在前	-16013
太太	-16014
安娜	-16015
就被	-16016
差别	-16017
当然	-16018
或称	-16019
打入	-16020
执教	-16021
拯救	-16022
早上	-16023
更换	-16024
株式	-16025
激素	-16026
的心	-16027
盟军	-16028
相较	-16029
社长	-16030
绍兴	-16031
臀鳍	-16032
航班	-16033
西门	-16034
读书	-16035
较多	-16036
较小	-16037
阴道	-16038
首映	-16039
驱动	-16040
104	-16041
109	-16042
>(<	-16043
GEN	-16044
URI	-16045
eot	-16046
oti	-16047
php	-16048
▁英国	-16049
为什么	-16050
十六年	-16051
发现于	-16052
年出生	-16053
年球季	-16054
的机会	-16055
纽西兰	-16056
被并入	-16057
都没有	-16058
eras	-16059
half	-16060
mini	-16061
rait	-16062
▁REL	-16063
▁bin	-16064
▁hel	-16065
▁los	-16066
代表大会	-16067
株式会社	-16068
">1</	-16069
())._	-16070
▁Bill	-16071
▁Holy	-16072
▁mete	-16073
。2003	-16074
bridge	-16075
hadoop	-16076
italic	-16077
rained	-16078
raints	-16079
reader	-16080
tected	-16081
▁alpha	-16082
▁dates	-16083
▁joint	-16084
▁reign	-16085
clusive	-16086
▁Struct	-16087
▁cancel	-16088
▁canvas	-16089
▁formal	-16090
▁retrie	-16091
奥林匹克运动会	-16092
Children	-16093
▁Russian	-16094
▁Session	-16095
▁precise	-16096
▁rotateX	-16097
▁wrapper	-16098
▁commands	-16099
▁drinking	-16100
▁handling	-16101
▁pictures	-16102
▁PROVIDERS	-16103
▁discussed	-16104
Relationship	-16105
▁fundamental	-16106
?"	-16107
dk	-16108
ym	-16109
▁贝	-16110
リー	-16111
一份	-16112
三级	-16113
不详	-16114
两座	-16115
其为	-16116
分之	-16117
判决	-16118
剩余	-16119
及后	-16120
叫做	-16121
史密	-16122
多名	-16123
大同	-16124
大大	-16125
射入	-16126
工部	-16127
带着	-16128
战中	-16129
收复	-16130
期限	-16131
死去	-16132
比分	-16133
满洲	-16134
煤炭	-16135
牛津	-16136
王室	-16137
珍珠	-16138
英尺	-16139
足总	-16140
过渡	-16141
镇区	-16142
高峰	-16143
/33	-16144
16.	-16145
ELE	-16146
TON	-16147
UST	-16148
due	-16149
wid	-16150
▁"@	-16151
▁8.	-16152
▁vs	-16153
▁作词	-16154
▁欧洲	-16155
一开始	-16156
改编为	-16157
是为了	-16158
纪念碑	-16159
美国人	-16160
韦瑟比	-16161
1930	-16162
FLAG	-16163
[1])	-16164
iced	-16165
same	-16166
zana	-16167
▁pad	-16168
Email	-16169
ILITY	-16170
Quant	-16171
lette	-16172
rainy	-16173
▁bone	-16174
▁prey	-16175
▁thin	-16176
coupon	-16177
encing	-16178
factor	-16179
▁Range	-16180
▁banks	-16181
▁crops	-16182
▁laser	-16183
▁shift	-16184
▁teeth	-16185
▁texts	-16186
Actions	-16187
holders	-16188
reshape	-16189
testing	-16190
▁coding	-16191
▁kernel	-16192
▁scheme	-16193
第一次世界大战	-16194
DateTime	-16195
▁Disease	-16196
▁chronic	-16197
▁guarant	-16198
▁morning	-16199
▁playing	-16200
olesterol	-16201
▁launched	-16202
▁licenses	-16203
▁suitable	-16204
▁perception	-16205
(:	-16206
YY	-16207
▁平	-16208
▁建	-16209
▁许	-16210
。「	-16211
与此	-16212
交汇	-16213
催化	-16214
兵部	-16215
决于	-16216
出自	-16217
刑部	-16218
劳工	-16219
北区	-16220
县立	-16221
商场	-16222
多元	-16223
就像	-16224
尼黑	-16225
布兰	-16226
所作	-16227
洪水	-16228
留学	-16229
绘制	-16230
考核	-16231
购入	-16232
降雨	-16233
首相	-16234
黑人	-16235
.).	-16236
900	-16237
NOT	-16238
dll	-16239
▁(3	-16240
▁中华	-16241
》:「	-16242
共和党	-16243
原来的	-16244
时代的	-16245
明显的	-16246
最好的	-16247
的一次	-16248
罗伯特	-16249
dden	-16250
▁20,	-16251
▁das	-16252
▁evt	-16253
▁ped	-16254
Total	-16255
solid	-16256
▁1969	-16257
▁acre	-16258
▁bott	-16259
▁defe	-16260
▁disp	-16261
▁evil	-16262
▁tips	-16263
。2021	-16264
Specif	-16265
Upload	-16266
figure	-16267
signed	-16268
▁Avoid	-16269
builder	-16270
commons	-16271
dynamic	-16272
imately	-16273
veloper	-16274
▁beings	-16275
▁secure	-16276
▁widely	-16277
Language	-16278
testimon	-16279
▁drought	-16280
▁promise	-16281
▁strings	-16282
▁independence	-16283
▁assertNotNull	-16284
HP	-16285
Tx	-16286
fx	-16287
▁©	-16288
』(	-16289
一代	-16290
不受	-16291
书法	-16292
但却	-16293
分泌	-16294
分解	-16295
刘济	-16296
北洋	-16297
合金	-16298
同为	-16299
固体	-16300
山村	-16301
年中	-16302
总长	-16303
指控	-16304
推测	-16305
数十	-16306
沉积	-16307
清军	-16308
电缆	-16309
节能	-16310
设在	-16311
贵阳	-16312
集的	-16313
顺位	-16314
频率	-16315
('\	-16316
(3)	-16317
1',	-16318
1-3	-16319
3</	-16320
:40	-16321
dra	-16322
▁1、	-16323
出现的	-16324
台南市	-16325
年在位	-16326
慕尼黑	-16327
的数据	-16328
认为是	-16329
.$$.	-16330
1958	-16331
DATE	-16332
HEAD	-16333
ISBN	-16334
WARE	-16335
impl	-16336
onym	-16337
sync	-16338
▁***	-16339
▁5],	-16340
▁Typ	-16341
海军大佐	-16342
甲级联赛	-16343
肯塔基州	-16344
航空母舰	-16345
▁crow	-16346
▁insp	-16347
▁ship	-16348
accept	-16349
reward	-16350
▁#1818	-16351
▁fetch	-16352
▁thead	-16353
▁trial	-16354
Section	-16355
plugins	-16356
▁Histor	-16357
▁bucket	-16358
▁looked	-16359
▁scaven	-16360
▁signed	-16361
▁Manzana	-16362
▁opening	-16363
roduction	-16364
▁listener	-16365
▁relation	-16366
brightness	-16367
▁committee	-16368
QualSpecies	-16369
▁photograph	-16370
▁situations	-16371
8)	-16372
▁女	-16373
▁않	-16374
为他	-16375
仅仅	-16376
伊达	-16377
做法	-16378
分校	-16379
初步	-16380
勇士	-16381
合资	-16382
同事	-16383
嘉庆	-16384
山站	-16385
总额	-16386
患有	-16387
描写	-16388
物资	-16389
独特	-16390
的内	-16391
福利	-16392
等的	-16393
红军	-16394
终止	-16395
车厢	-16396
较少	-16397
过于	-16398
顺序	-16399
136	-16400
=10	-16401
See	-16402
cif	-16403
▁沿革	-16404
保护区	-16405
在法国	-16406
在这个	-16407
总教区	-16408
来源于	-16409
查尔斯	-16410
翰林院	-16411
Rest	-16412
aked	-16413
chen	-16414
▁**/	-16415
▁Iss	-16416
agers	-16417
aming	-16418
shire	-16419
trust	-16420
▁1983	-16421
▁ages	-16422
▁hair	-16423
▁sequ	-16424
▁snow	-16425
Master	-16426
getKey	-16427
market	-16428
▁Super	-16429
集团有限公司	-16430
pointer	-16431
▁Remove	-16432
▁pounds	-16433
▁strand	-16434
▁stride	-16435
Fragment	-16436
doctools	-16437
platform	-16438
▁disturb	-16439
(0,0,0,0.	-16440
Validator	-16441
▁delivery	-16442
▁internet	-16443
▁supposed	-16444
blockquote	-16445
vs	-16446
ль	-16447
▁复	-16448
东区	-16449
中东	-16450
人气	-16451
但其	-16452
修订	-16453
几何	-16454
动态	-16455
园林	-16456
垃圾	-16457
屋顶	-16458
拍卖	-16459
数目	-16460
方程	-16461
末年	-16462
水上	-16463
注释	-16464
流通	-16465
熊猫	-16466
琉球	-16467
画作	-16468
老夫	-16469
英军	-16470
认知	-16471
转变	-16472
防卫	-16473
-45	-16474
/%(	-16475
BAL	-16476
awt	-16477
chi	-16478
ova	-16479
亚德良	-16480
取决于	-16481
员外郎	-16482
在台湾	-16483
植物园	-16484
牠们的	-16485
的过程	-16486
面骑士	-16487
("__	-16488
1920	-16489
1944	-16490
1963	-16491
DATA	-16492
aped	-16493
curr	-16494
oche	-16495
onds	-16496
tics	-16497
wing	-16498
▁CSS	-16499
▁Tom	-16500
浙东运河	-16501
航空公司	-16502
David	-16503
Debug	-16504
erved	-16505
oster	-16506
rooms	-16507
world	-16508
▁1951	-16509
▁fade	-16510
▁tank	-16511
▁wash	-16512
Ignore	-16513
alletd	-16514
rainer	-16515
▁Media	-16516
▁goods	-16517
enabled	-16518
flexbox	-16519
loyment	-16520
minutes	-16521
ulating	-16522
▁debate	-16523
▁italic	-16524
▁Finally	-16525
▁capable	-16526
▁greatly	-16527
▁involve	-16528
▁improved	-16529
▁mountain	-16530
▁particle	-16531
▁province	-16532
▁Architect	-16533
▁agreement	-16534
▁Description	-16535
▁composition	-16536
▁orientation	-16537
▁provisioning	-16538
▁recommendations	-16539
/4	-16540
DX	-16541
▁花	-16542
两条	-16543
力学	-16544
历代	-16545
参演	-16546
参观	-16547
吏部	-16548
在今	-16549
基辅	-16550
宗室	-16551
实业	-16552
得分	-16553
怀孕	-16554
执法	-16555
接待	-16556
操纵	-16557
普及	-16558
曼谷	-16559
深刻	-16560
火炮	-16561
礼部	-16562
西藏	-16563
转型	-16564
106	-16565
Cat	-16566
Har	-16567
Opt	-16568
mul	-16569
▁4)	-16570
▁冠军	-16571
▁처리	-16572
体育馆	-16573
受到了	-16574
年轻的	-16575
托马斯	-16576
游戏中	-16577
的土地	-16578
的比赛	-16579
采用了	-16580
>)</	-16581
Gest	-16582
PASS	-16583
bara	-16584
ques	-16585
▁pil	-16586
Break	-16587
Upper	-16588
atell	-16589
clean	-16590
grade	-16591
mbols	-16592
works	-16593
▁fort	-16594
▁kill	-16595
▁recy	-16596
委员会主席	-16597
Groups	-16598
spread	-16599
whatwg	-16600
atively	-16601
mediate	-16602
▁Indust	-16603
▁Specif	-16604
▁closer	-16605
▁extend	-16606
▁gender	-16607
▁theore	-16608
Resizing	-16609
▁Indians	-16610
▁mammals	-16611
▁carrying	-16612
▁declared	-16613
Serializer	-16614
vironments	-16615
▁processed	-16616
▁regularly	-16617
▁variation	-16618
▁horizontal	-16619
▁university	-16620
▁experiences	-16621
▁experiments	-16622
▁Constitution	-16623
▁representing	-16624
▁satisfaction	-16625
LY	-16626
xi	-16627
▁单	-16628
▁富	-16629
▁梁	-16630
▁麦	-16631
。)	-16632
人都	-16633
公益	-16634
切尔	-16635
宰相	-16636
封闭	-16637
房子	-16638
接任	-16639
时在	-16640
林鸮	-16641
次数	-16642
欢乐	-16643
清代	-16644
牺牲	-16645
百货	-16646
的真	-16647
科尔	-16648
蒸汽	-16649
还会	-16650
这类	-16651
那样	-16652
银牌	-16653
으로	-16654
+20	-16655
-27	-16656
20,	-16657
OFF	-16658
▁YT	-16659
▁电视	-16660
乡道云	-16661
伯利亚	-16662
天文台	-16663
孟加拉	-16664
开始在	-16665
影响力	-16666
最初的	-16667
的区域	-16668
的女性	-16669
科会试	-16670
第三次	-16671
1"><	-16672
Copy	-16673
erce	-16674
idae	-16675
rish	-16676
▁12,	-16677
▁Tor	-16678
高速铁路	-16679
">)</	-16680
Dragg	-16681
Route	-16682
agram	-16683
bobox	-16684
remio	-16685
xford	-16686
▁mist	-16687
▁sing	-16688
icates	-16689
mapped	-16690
reduce	-16691
▁Video	-16692
▁abund	-16693
▁miner	-16694
NonNull	-16695
ordinal	-16696
perform	-16697
tenance	-16698
▁Wright	-16699
▁broken	-16700
▁colour	-16701
▁neighb	-16702
overcast	-16703
▁appreci	-16704
▁statist	-16705
ATTRIBUTE	-16706
computers	-16707
positions	-16708
riculture	-16709
▁accurate	-16710
▁addresses	-16711
▁elsewhere	-16712
▁expansion	-16713
▁libraries	-16714
▁ownership	-16715
▁underline	-16716
▁assistance	-16717
▁resolution	-16718
▁validation	-16719
/{	-16720
EP	-16721
Ãƒ	-16722
ер	-16723
▁·	-16724
、6	-16725
一只	-16726
东汉	-16727
众人	-16728
保温	-16729
兄长	-16730
冲绳	-16731
出品	-16732
则有	-16733
去了	-16734
后卫	-16735
否则	-16736
回收	-16737
大军	-16738
将他	-16739
就能	-16740
当作	-16741
德罗	-16742
愤怒	-16743
援助	-16744
携带	-16745
星系	-16746
机动	-16747
次郎	-16748
湖广	-16749
直属	-16750
磷酸	-16751
紧张	-16752
蝙蝠	-16753
观赏	-16754
题材	-16755
CAC	-16756
Uri	-16757
fab	-16758
▁";	-16759
▁文化	-16760
个国家	-16761
他认为	-16762
但是在	-16763
十二厅	-16764
引起的	-16765
指的是	-16766
1946	-16767
STAT	-16768
THER	-16769
iana	-16770
iger	-16771
otic	-16772
scss	-16773
▁hab	-16774
▁配音员	-16775
卢瓦尔省	-16776
可以通过	-16777
除此之外	-16778
acion	-16779
alpha	-16780
itals	-16781
preme	-16782
▁1954	-16783
▁1976	-16784
▁dump	-16785
arison	-16786
course	-16787
ishing	-16788
▁Early	-16789
▁reads	-16790
▁sprou	-16791
▁twice	-16792
incipal	-16793
▁Russia	-16794
▁garden	-16795
▁reform	-16796
▁submit	-16797
▁tables	-16798
encoding	-16799
▁Johnson	-16800
▁Limited	-16801
▁Madison	-16802
▁convers	-16803
▁largely	-16804
Interface	-16805
Namespace	-16806
▁dropdown	-16807
▁expanded	-16808
▁survival	-16809
▁PropTypes	-16810
▁behaviour	-16811
▁fracturing	-16812
?.	-16813
CS	-16814
ij	-16815
、4	-16816
、7	-16817
ート	-16818
一书	-16819
事后	-16820
全身	-16821
利奥	-16822
加斯	-16823
发作	-16824
回复	-16825
团结	-16826
地处	-16827
城门	-16828
很好	-16829
是大	-16830
模拟	-16831
歇尔	-16832
用以	-16833
短途	-16834
硬棘	-16835
磁场	-16836
移植	-16837
索尔	-16838
约克	-16839
质疑	-16840
起了	-16841
路径	-16842
面包	-16843
魔王	-16844
-1-	-16845
gay	-16846
uns	-16847
zil	-16848
▁(4	-16849
▁-5	-16850
▁PM	-16851
▁cs	-16852
年成为	-16853
房地产	-16854
电影的	-16855
第二个	-16856
陕西省	-16857
2"><	-16858
Edge	-16859
HTTP	-16860
Rows	-16861
Zxid	-16862
__()	-16863
sper	-16864
wiki	-16865
▁Api	-16866
▁```	-16867
▁cas	-16868
污水处理	-16869
Proxy	-16870
__");	-16871
orgia	-16872
▁0.75	-16873
▁Ange	-16874
▁Show	-16875
▁iron	-16876
▁para	-16877
▁rein	-16878
="100%	-16879
Inject	-16880
Static	-16881
bubble	-16882
▁Fixed	-16883
▁Light	-16884
▁WIDTH	-16885
▁aspir	-16886
▁craft	-16887
▁deleg	-16888
▁integ	-16889
▁urban	-16890
imports	-16891
rowsers	-16892
▁Forest	-16893
▁crisis	-16894
▁explor	-16895
▁spaces	-16896
▁thrown	-16897
▁Whether	-16898
=========	-16899
▁Mountain	-16900
▁Southern	-16901
▁agencies	-16902
▁electrons	-16903
▁movements	-16904
ReferenceEntry	-16905
▁complications	-16906
7%	-16907
\&	-16908
▁°	-16909
▁特	-16910
▁田	-16911
ょう	-16912
一批	-16913
也曾	-16914
以其	-16915
侦察	-16916
做为	-16917
出色	-16918
列出	-16919
周末	-16920
和大	-16921
均有	-16922
大略	-16923
天体	-16924
始于	-16925
它在	-16926
寿命	-16927
岗位	-16928
应急	-16929
影展	-16930
排放	-16931
推翻	-16932
敏感	-16933
时报	-16934
本剧	-16935
杀人	-16936
洪武	-16937
环节	-16938
的花	-16939
直升	-16940
立陶	-16941
血压	-16942
解析	-16943
进而	-16944
预期	-16945
')(	-16946
1.4	-16947
11.	-16948
196	-16949
="0	-16950
>>)	-16951
COM	-16952
ani	-16953
don	-16954
oga	-16955
sid	-16956
▁9.	-16957
为基础	-16958
产品的	-16959
位于该	-16960
存在于	-16961
并成为	-16962
技术的	-16963
给事中	-16964
(1.5	-16965
=100	-16966
What	-16967
atom	-16968
door	-16969
pane	-16970
▁10°	-16971
▁Ari	-16972
世界各地	-16973
的基础上	-16974
Autow	-16975
Media	-16976
basic	-16977
ducer	-16978
eting	-16979
oseph	-16980
swith	-16981
▁200,	-16982
▁Fair	-16983
▁Scot	-16984
▁aren	-16985
▁pair	-16986
▁runs	-16987
Americ	-16988
aquote	-16989
▁exemp	-16990
▁oNode	-16991
▁roots	-16992
▁stock	-16993
HelpSet	-16994
program	-16995
through	-16996
▁listed	-16997
workflow	-16998
▁Lincoln	-16999
▁answers	-17000
▁careful	-17001
▁dynamic	-17002
▁scholar	-17003
▁trained	-17004
▁vaccine	-17005
../../../	-17006
Autowired	-17007
templates	-17008
▁Catholic	-17009
▁finished	-17010
▁quantity	-17011
PathLoader	-17012
categories	-17013
▁displayed	-17014
▁pregnancy	-17015
▁laboratory	-17016
▁monitoring	-17017
▁Organization	-17018
Authentication	-17019
▁philosophical	-17020
0)	-17021
0[	-17022
=3	-17023
上方	-17024
两大	-17025
伦多	-17026
关节	-17027
北市	-17028
围攻	-17029
塞特	-17030
夫利	-17031
尸体	-17032
工会	-17033
工党	-17034
巴勒	-17035
战败	-17036
打点	-17037
技巧	-17038
放射	-17039
新世	-17040
方形	-17041
族的	-17042
残疾	-17043
消除	-17044
灭亡	-17045
灾害	-17046
用地	-17047
的美	-17048
盆地	-17049
看见	-17050
粉丝	-17051
萝卜	-17052
营销	-17053
诺斯	-17054
1":	-17055
2",	-17056
=0.	-17057
CSS	-17058
HOW	-17059
WSC	-17060
ien	-17061
igs	-17062
opc	-17063
pin	-17064
was	-17065
▁另外	-17066
也因此	-17067
克威尔	-17068
它们的	-17069
控制杆	-17070
深圳市	-17071
的官方	-17072
立陶宛	-17073
类似的	-17074
自行车	-17075
蛋白质	-17076
1962	-17077
4"}}	-17078
ITLE	-17079
Year	-17080
ette	-17081
lder	-17082
▁178	-17083
▁Mic	-17084
▁Van	-17085
有轨电车	-17086
有限责任	-17087
Super	-17088
beans	-17089
igate	-17090
lipse	-17091
prior	-17092
pulse	-17093
throw	-17094
visor	-17095
▁1966	-17096
▁milk	-17097
▁sink	-17098
▁warn	-17099
▁|-->	-17100
Amount	-17101
▁Force	-17102
▁Query	-17103
▁draft	-17104
▁innov	-17105
Contact	-17106
▁merged	-17107
▁served	-17108
Ancestor	-17109
▁skilled	-17110
▁stretch	-17111
▁#000000;	-17112
▁workflow	-17113
StackTrace	-17114
▁scheduled	-17115
▁Parameters	-17116
▁Scientists	-17117
▁commission	-17118
▁Corporation	-17119
▁indiciaData	-17120
▁legislation	-17121
▁contemporary	-17122
▁instructions	-17123
▁developmental	-17124
.:	-17125
1。	-17126
Je	-17127
LA	-17128
pb	-17129
wa	-17130
▁波	-17131
下属	-17132
之名	-17133
之星	-17134
了这	-17135
人间	-17136
公演	-17137
博彩	-17138
即是	-17139
双城	-17140
名录	-17141
大力	-17142
大帝	-17143
并有	-17144
应对	-17145
战死	-17146
扩散	-17147
曾为	-17148
月初	-17149
机组	-17150
模特	-17151
百年	-17152
移居	-17153
茨克	-17154
西区	-17155
还要	-17156
配乐	-17157
顶部	-17158
高丽	-17159
)10	-17160
,11	-17161
.",	-17162
1.8	-17163
139	-17164
25,	-17165
5">	-17166
Dim	-17167
Pub	-17168
cus	-17169
idp	-17170
▁'"	-17171
▁66	-17172
▁Ze	-17173
▁尽管	-17174
之后的	-17175
于香港	-17176
基本上	-17177
建立的	-17178
更大的	-17179
毕业生	-17180
的表现	-17181
高尔夫	-17182
">&#	-17183
-2">	-17184
1978	-17185
Html	-17186
PATH	-17187
Sort	-17188
anda	-17189
igin	-17190
loop	-17191
rent	-17192
▁0;}	-17193
▁700	-17194
▁Ban	-17195
▁Bus	-17196
▁Lee	-17197
▁bib	-17198
odium	-17199
ogram	-17200
▁skew	-17201
▁thor	-17202
。1920	-17203
"><!--	-17204
issues	-17205
▁Azure	-17206
▁Curie	-17207
▁Usage	-17208
lighter	-17209
▁Stream	-17210
▁analog	-17211
▁depict	-17212
▁elNode	-17213
▁fossil	-17214
▁plugin	-17215
Detector	-17216
commands	-17217
gorithms	-17218
hasClass	-17219
ransport	-17220
▁insects	-17221
▁partner	-17222
getaquote	-17223
▁Division	-17224
▁assigned	-17225
▁controls	-17226
▁evaluate	-17227
▁velocity	-17228
▁temporary	-17229
transaction	-17230
▁blockquote	-17231
,'	-17232
MI	-17233
PF	-17234
▁可	-17235
▁宝	-17236
▁蔡	-17237
▁郭	-17238
かみ	-17239
ール	-17240
不利	-17241
克劳	-17242
其顿	-17243
刘基	-17244
剑桥	-17245
务段	-17246
区和	-17247
千瓦	-17248
县级	-17249
在位	-17250
垄断	-17251
家政	-17252
年因	-17253
开心	-17254
张江	-17255
微博	-17256
手下	-17257
拿到	-17258
提督	-17259
播映	-17260
收获	-17261
敲出	-17262
族群	-17263
时被	-17264
时针	-17265
法师	-17266
王刘	-17267
疼痛	-17268
病逝	-17269
能在	-17270
连任	-17271
铜牌	-17272
雷根	-17273
领事	-17274
태그	-17275
208	-17276
[...]
